<pad>	0
<unk>	0
<s>	0
</s>	0
<user>	0
<assistant>	0
<label_0>	0
<label_1>	0
<label_2>	0
$	0
▁.	-0
▁0	-1
▁1	-2
세요	-3
▁2	-4
▁사	-5
▁좋	-6
▁있	-7
▁이	-8
▁거	-9
▁?	-10
하는	-11
보세요	-12
▁그	-13
▁나	-14
▁아	-15
예요	-16
▁마	-17
▁사람	-18
▁좋아	-19
어요	-20
▁같	-21
▁거예요	-22
▁하	-23
▁생	-24
▁다	-25
▁어	-26
▁가	-27
▁안	-28
▁해	-29
▁수	-30
▁사랑	-31
네요	-32
▁연	-33
▁없	-34
니다	-35
▁생각	-36
▁자	-37
▁잘	-38
▁힘	-39
친구	-40
▁싶	-41
▁여	-42
봐요	-43
▁너	-44
▁많	-45
▁말	-46
▁만	-47
▁남	-48
▁것	-49
▁시	-50
는데	-51
▁내	-52
▁마음	-53
▁않	-54
▁너무	-55
아요	-56
▁기	-57
▁보	-58
▁오	-59
▁지	-60
▁바	-61
▁좋아하는	-62
▁더	-63
해보세요	-64
▁이별	-65
▁정	-66
▁연락	-67
▁헤	-68
하고	-69
▁일	-70
▁헤어	-71
▁짝	-72
▁있을	-73
▁고	-74
▁썸	-75
▁여자	-76
▁남자	-77
으면	-78
▁되	-79
▁힘들	-80
▁좋은	-81
▁모	-82
▁한	-83
나봐요	-84
▁알	-85
하지	-86
▁많이	-87
▁시간	-88
▁게	-89
▁사람이	-90
▁때	-91
▁상	-92
에요	-93
▁저	-94
으로	-95
▁무	-96
▁못	-97
▁친구	-98
▁건	-99
한테	-100
에서	-101
▁전	-102
▁주	-103
▁먹	-104
▁좀	-105
▁중	-106
▁!	-107
▁결	-108
해요	-109
▁같아요	-110
까요	-111
겠어요	-112
▁부	-113
▁있어요	-114
▁싶어	-115
▁인	-116
▁대	-117
▁조	-118
▁살	-119
▁당	-120
▁받	-121
▁뭐	-122
하면	-123
▁선	-124
▁제	-125
▁될	-126
▁후	-127
▁오늘	-128
▁같아	-129
▁만나	-130
▁할	-131
하세요	-132
이에요	-133
하게	-134
▁괜	-135
▁걸	-136
▁끝	-137
겠네요	-138
주세요	-139
▁자신	-140
▁미	-141
▁소	-142
▁진	-143
에게	-144
▁이제	-145
▁드	-146
겠지	-147
▁들	-148
▁좋을	-149
습니다	-150
▁아니	-151
▁괜찮	-152
▁마세요	-153
▁필	-154
라고	-155
▁잊	-156
▁감	-157
▁있는	-158
▁마음이	-159
▁하는	-160
▁연애	-161
▁비	-162
게요	-163
▁내가	-164
▁필요	-165
친구가	-166
는게	-167
▁해보세요	-168
▁혼	-169
▁스	-170
▁왜	-171
▁모르	-172
▁공	-173
다면	-174
▁어떻	-175
▁예	-176
▁차	-177
▁집	-178
▁다른	-179
가봐요	-180
▁타	-181
▁행	-182
▁어떻게	-183
▁물	-184
▁짝남	-185
▁시간이	-186
▁헤어진	-187
▁날	-188
▁돼	-189
다고	-190
▁서	-191
▁신	-192
▁없어	-193
▁도	-194
▁애	-195
▁당신	-196
겠어	-197
해도	-198
▁방	-199
▁싶다	-200
겠죠	-201
▁관	-202
▁우	-203
▁다시	-204
사랑	-205
▁혼자	-206
▁했	-207
▁맞	-208
▁있어	-209
▁눈	-210
인데	-211
▁하고	-212
▁또	-213
▁결혼	-214
▁정말	-215
들이	-216
▁지금	-217
▁정리	-218
▁노	-219
▁잠	-220
▁수도	-221
▁재	-222
▁기다	-223
▁찾	-224
▁싫	-225
▁계	-226
▁중요	-227
▁참	-228
▁새	-229
▁그런	-230
▁준	-231
야지	-232
이네요	-233
할까	-234
▁행복	-235
▁조금	-236
▁따	-237
▁편	-238
▁확	-239
▁같이	-240
어보세요	-241
▁데	-242
▁위	-243
렇게	-244
▁것도	-245
▁놀	-246
▁언	-247
은데	-248
▁고민	-249
▁얼	-250
라요	-251
▁아직	-252
▁쉬	-253
▁추	-254
▁두	-255
▁피	-256
▁짝사랑	-257
▁반	-258
▁먼	-259
▁의	-260
이라	-261
▁자꾸	-262
▁달	-263
▁성	-264
지만	-265
지도	-266
▁준비	-267
보다	-268
▁선물	-269
▁찾아	-270
▁배	-271
▁아무	-272
▁힘든	-273
▁누	-274
▁화	-275
▁보고	-276
합니다	-277
▁느	-278
▁저도	-279
▁변	-280
볼까	-281
▁고백	-282
▁없어요	-283
▁술	-284
까지	-285
야기	-286
이죠	-287
▁짝녀	-288
거예요	-289
▁맛	-290
▁바랄	-291
니까요	-292
▁카	-293
▁그럴	-294
겠다	-295
▁진짜	-296
▁후회	-297
▁꿈	-298
▁몰	-299
▁운	-300
을까	-301
▁먼저	-302
▁서로	-303
▁바랄게요	-304
해서	-305
▁없는	-306
▁충	-307
▁제가	-308
▁돼요	-309
▁방법	-310
▁사귀	-311
봅니다	-312
▁이야기	-313
▁심	-314
▁적	-315
▁문	-316
해야	-317
▁헤어지	-318
▁직	-319
▁시작	-320
▁동	-321
▁헤어진지	-322
▁불	-323
▁들어	-324
▁귀	-325
▁돌	-326
▁해야	-327
▁있을까	-328
▁올	-329
에는	-330
▁그녀	-331
▁하나	-332
▁답	-333
이야	-334
인가	-335
▁계속	-336
▁일이	-337
▁나를	-338
▁받아	-339
▁아닌	-340
▁좋아요	-341
▁버	-342
▁줄	-343
▁공부	-344
해주세요	-345
▁매	-346
▁감정	-347
▁사랑이	-348
▁마음을	-349
이트	-350
▁가능	-351
▁될까	-352
▁보세요	-353
▁왔	-354
▁기분	-355
▁여자친구가	-356
▁먹고	-357
려고	-358
▁힘드	-359
▁남자친구가	-360
▁돈	-361
기가	-362
면서	-363
보는	-364
▁만들	-365
랍니다	-366
▁여자친구	-367
▁현	-368
▁실	-369
▁회	-370
대로	-371
했어	-372
▁드세요	-373
▁않아요	-374
▁하세요	-375
▁떨	-376
▁신경	-377
▁이상	-378
다는	-379
▁좋죠	-380
▁하루	-381
▁곳	-382
▁세	-383
▁쓰	-384
리는	-385
지는	-386
▁간	-387
니까	-388
▁많은	-389
▁하지	-390
▁걱	-391
▁머	-392
자고	-393
하기	-394
▁걱정	-395
▁떠	-396
▁믿	-397
▁알아	-398
▁속	-399
▁취	-400
▁함	-401
▁싫어	-402
입니다	-403
▁바랍니다	-404
▁원	-405
나요	-406
▁상대	-407
▁분	-408
▁표	-409
하는게	-410
▁영	-411
▁그래	-412
▁사랑하는	-413
▁관심	-414
▁기억	-415
▁힘들어	-416
▁쉽	-417
▁해요	-418
▁데이트	-419
▁,	-420
▁남자친구	-421
적인	-422
▁상처	-423
▁생각해요	-424
▁말해보세요	-425
▁맘	-426
▁장	-427
▁커	-428
이랑	-429
▁언제	-430
▁축	-431
로운	-432
스러	-433
▁뭘	-434
▁입	-435
▁맛있	-436
▁어떨	-437
▁여행	-438
▁충분	-439
▁좋겠어요	-440
다가	-441
하죠	-442
▁무슨	-443
▁어떤	-444
▁있었	-445
▁앞	-446
▁엄	-447
▁용	-448
▁학	-449
▁있으면	-450
▁친구가	-451
▁외	-452
▁최	-453
이었	-454
텐데	-455
▁그냥	-456
▁대화	-457
▁카톡	-458
▁할까	-459
▁함께	-460
▁사람은	-461
▁구	-462
인지	-463
▁않는	-464
▁이렇게	-465
▁발	-466
부터	-467
▁나만	-468
▁물어	-469
▁안돼	-470
▁헤어졌	-471
▁3	-472
▁놓	-473
▁슬	-474
▁싸	-475
▁요	-476
▁내일	-477
▁오래	-478
▁약	-479
하네	-480
▁누구	-481
▁않을	-482
▁표현	-483
▁몰라요	-484
▁힘드네	-485
▁머리	-486
▁이해	-487
▁궁	-488
▁열	-489
▁점	-490
라도	-491
▁여친	-492
▁전화	-493
겠지만	-494
▁자신을	-495
▁과	-496
가는	-497
▁사랑은	-498
▁길	-499
▁설	-500
리고	-501
▁결정	-502
▁궁금	-503
▁많아	-504
▁운동	-505
▁이유	-506
▁하면	-507
▁됐	-508
▁어디	-509
▁사람을	-510
▁새로운	-511
▁듯	-512
▁별	-513
▁호	-514
기도	-515
트레	-516
▁선택	-517
▁아프	-518
▁한달	-519
▁어떨까요	-520
▁늦	-521
▁단	-522
▁즐	-523
▁처	-524
▁돌아	-525
▁부담	-526
▁썸남	-527
▁스트레	-528
▁있는데	-529
▁생각해보세요	-530
▁복	-531
했던	-532
▁미련	-533
▁안되	-534
▁주세요	-535
▁깨	-536
▁치	-537
어도	-538
▁생겼	-539
▁해도	-540
▁잡	-541
▁타는	-542
▁회사	-543
▁나한테	-544
▁죽	-545
▁노력	-546
▁말고	-547
▁유	-548
▁챙	-549
▁첫	-550
개월	-551
었어	-552
해주	-553
▁보내	-554
▁직접	-555
▁아니에요	-556
거나	-557
나봐	-558
▁가고	-559
▁그만	-560
▁다가	-561
▁따라	-562
▁만큼	-563
▁생각나	-564
▁순	-565
▁질	-566
▁때문	-567
▁않아	-568
▁인연	-569
▁지나	-570
았는데	-571
▁생각이	-572
▁연락이	-573
▁좋겠네요	-574
▁갈	-575
▁막	-576
▁번	-577
▁벌	-578
▁와	-579
▁휴	-580
처럼	-581
▁그러	-582
▁싶은	-583
▁어떡	-584
▁생각을	-585
움이	-586
이나	-587
▁만날	-588
▁않았	-589
▁이젠	-590
▁재미	-591
▁갑	-592
▁경	-593
▁멋	-594
▁항	-595
군요	-596
▁그게	-597
▁소개	-598
▁어려	-599
▁항상	-600
으세요	-601
▁같은데	-602
▁괜찮아	-603
▁신경쓰	-604
▁이별을	-605
나봅니다	-606
▁스트레스	-607
가요	-608
해지	-609
▁남친	-610
▁쉽지	-611
▁인생	-612
▁잘못	-613
▁저는	-614
▁그렇게	-615
▁마음에	-616
▁짝남이	-617
▁완	-618
▁허	-619
▁문제	-620
▁아파	-621
▁조심	-622
적으로	-623
기를	-624
보고	-625
▁같은	-626
▁노래	-627
▁처음	-628
했는데	-629
▁바라요	-630
▁좋겠다	-631
인가봐요	-632
▁모르겠어	-633
▁몸	-634
▁봐	-635
▁붙	-636
거라	-637
어나	-638
▁느낌	-639
▁상황	-640
▁어때	-641
하네요	-642
하는데	-643
▁난	-644
하다	-645
▁때가	-646
▁우리	-647
리세요	-648
려보세요	-649
▁볼	-650
는지	-651
졌어	-652
▁나이	-653
▁달라	-654
▁만났	-655
▁변화	-656
▁축하	-657
▁중요한	-658
▁찾아보세요	-659
▁개	-660
▁꼭	-661
▁넘	-662
▁덜	-663
▁목	-664
▁손	-665
▁웃	-666
▁천	-667
▁크	-668
스럽	-669
습관	-670
▁확실	-671
▁사랑을	-672
▁결국	-673
▁답답	-674
▁위로	-675
▁챙겨	-676
▁추억	-677
▁화장	-678
▁이별은	-679
▁가보세요	-680
▁빠	-681
▁큰	-682
▁가는	-683
▁기대	-684
▁나는	-685
▁다음	-686
▁말을	-687
▁현실	-688
▁생각해	-689
▁괜찮아요	-690
▁포	-691
▁말씀	-692
▁사이	-693
▁세상	-694
▁영화	-695
▁요즘	-696
▁잊어	-697
▁힘내	-698
▁좋겠어	-699
▁충분히	-700
▁절	-701
▁친	-702
▁그렇	-703
▁대화를	-704
▁도움이	-705
▁사랑한	-706
▁태	-707
▁환	-708
▁흘	-709
감이	-710
는거	-711
만에	-712
심히	-713
지막	-714
지요	-715
▁의미	-716
▁있죠	-717
▁아직도	-718
▁여자애	-719
▁열심히	-720
▁물어보세요	-721
▁뭔	-722
▁풀	-723
걸까	-724
동안	-725
싶어	-726
았어	-727
이네	-728
▁가져	-729
▁가지	-730
▁않은	-731
▁언젠	-732
▁추천	-733
▁확인	-734
▁마음의	-735
▁마지막	-736
▁연락을	-737
▁좋을까	-738
▁밥	-739
▁종	-740
▁청	-741
것도	-742
보면	-743
▁말해	-744
▁먹어	-745
▁아침	-746
▁얼른	-747
▁정신	-748
▁집에	-749
이라도	-750
▁말아요	-751
▁싶은데	-752
▁식	-753
▁울	-754
▁짜	-755
▁가슴	-756
▁건강	-757
▁관계	-758
▁나쁜	-759
▁만남	-760
▁부모	-761
▁습관	-762
▁어제	-763
▁때문에	-764
▁사랑의	-765
▁상대방	-766
▁시간을	-767
▁오늘도	-768
▁연락해보세요	-769
▁뿐	-770
▁키	-771
▁평	-772
라면	-773
워요	-774
일까	-775
▁되었	-776
▁매일	-777
▁짝녀가	-778
▁헤어짐	-779
으니까요	-780
한가봐요	-781
▁금	-782
▁된	-783
▁몇	-784
▁솔	-785
▁프	-786
▁핸	-787
사람	-788
▁가장	-789
▁귀찮	-790
▁그리	-791
▁다르	-792
▁살고	-793
▁어느	-794
▁완전	-795
▁이런	-796
▁재회	-797
▁남자애	-798
▁당신의	-799
▁부모님	-800
▁조금만	-801
했나봐요	-802
▁있나봐요	-803
▁긴	-804
▁빨	-805
▁온	-806
▁졸	-807
▁티	-808
자기	-809
▁나가	-810
▁떨어	-811
▁바람	-812
▁아닐	-813
▁제일	-814
▁커피	-815
▁핸드	-816
릴게요	-817
▁조금씩	-818
▁해볼까	-819
▁헤어지고	-820
▁딱	-821
▁잔	-822
▁착	-823
감을	-824
신이	-825
▁대한	-826
▁못하	-827
▁알려	-828
▁얼마	-829
▁진심	-830
하면서	-831
▁남자가	-832
▁사람들	-833
▁오세요	-834
▁좋아하	-835
▁로	-836
▁작	-837
▁존	-838
▁통	-839
더니	-840
리가	-841
한지	-842
▁같애	-843
▁거라	-844
▁많았	-845
▁모든	-846
▁성공	-847
▁순간	-848
▁자연	-849
▁잘할	-850
▁그래도	-851
▁기다리	-852
▁핸드폰	-853
▁글	-854
▁꾸	-855
▁초	-856
▁파	-857
스로	-858
▁맞는	-859
▁살아	-860
▁엄마	-861
▁연습	-862
▁인정	-863
▁주말	-864
▁한번	-865
스러운	-866
▁갑자기	-867
▁이별이	-868
▁자신의	-869
▁사람이랑	-870
▁중요해요	-871
▁조심하세요	-872
▁망	-873
▁야	-874
폭풍	-875
▁되는	-876
▁사진	-877
▁엄청	-878
▁없을	-879
▁잊혀	-880
▁모르는	-881
▁합니다	-882
▁했는데	-883
▁사람들이	-884
▁알았는데	-885
▁강	-886
▁네	-887
▁음	-888
수록	-889
적이	-890
지지	-891
▁가끔	-892
▁모두	-893
▁복잡	-894
▁얼굴	-895
▁없네	-896
▁예뻐	-897
▁예의	-898
▁왔어	-899
▁재밌	-900
▁스스로	-901
▁여자가	-902
▁좋아할	-903
▁필요한	-904
하겠어요	-905
▁갖	-906
▁욕	-907
▁짧	-908
▁탈	-909
같은	-910
▁날씨	-911
▁남편	-912
▁상관	-913
▁쉬운	-914
▁자주	-915
▁지내	-916
달라고	-917
마세요	-918
▁만나고	-919
▁소개팅	-920
▁정리가	-921
▁짝남한테	-922
▁5	-923
▁극	-924
▁면	-925
왔어	-926
▁떠나	-927
▁마시	-928
▁뭘까	-929
▁보는	-930
▁보이	-931
▁아픈	-932
▁알바	-933
▁저랑	-934
었는데	-935
▁기분이	-936
▁당신이	-937
▁사람한테	-938
▁4	-939
▁끊	-940
▁듣	-941
▁옷	-942
▁흐	-943
거리	-944
기로	-945
다니	-946
력이	-947
없이	-948
▁눈물	-949
▁되나	-950
▁무서	-951
▁무시	-952
▁실수	-953
▁짜증	-954
▁피곤	-955
▁싶어요	-956
▁어떡해	-957
▁연락해	-958
▁있다면	-959
▁잘하는	-960
▁후폭풍	-961
▁생각보다	-962
▁모르겠어요	-963
▁견	-964
▁꽃	-965
▁둘	-966
▁똑	-967
▁월	-968
▁줘	-969
가고	-970
건가	-971
려요	-972
만큼	-973
쁘게	-974
해질	-975
▁나와	-976
▁도와	-977
▁별로	-978
▁아픔	-979
▁정도	-980
▁기다려	-981
▁만들어	-982
▁오늘은	-983
▁지금도	-984
▁받아들이	-985
▁본	-986
▁봄	-987
▁코	-988
▁흔	-989
일째	-990
지가	-991
천히	-992
해줘	-993
▁가족	-994
▁걸까	-995
▁극복	-996
▁끝나	-997
▁모습	-998
▁뭐가	-999
▁붙잡	-1000
▁빨리	-1001
▁사는	-1002
▁솔직	-1003
▁지켜	-1004
▁차단	-1005
▁학교	-1006
▁괜찮은	-1007
▁사랑에	-1008
▁잘하고	-1009
▁천천히	-1010
▁친구랑	-1011
▁6	-1012
▁갔	-1013
▁뒤	-1014
▁밤	-1015
▁빌	-1016
▁양	-1017
▁은	-1018
▁출	-1019
같아	-1020
마다	-1021
시간	-1022
▁감기	-1023
▁것이	-1024
▁그분	-1025
▁끝났	-1026
▁다녀	-1027
▁따뜻	-1028
▁마주	-1029
▁벌써	-1030
▁보여	-1031
▁설레	-1032
▁자기	-1033
▁점점	-1034
▁환승	-1035
기까지	-1036
▁맛있게	-1037
▁인연이	-1038
▁확신이	-1039
▁익	-1040
기는	-1041
이면	-1042
주는	-1043
▁내려	-1044
▁두려	-1045
▁만난	-1046
▁살펴	-1047
▁아이	-1048
▁운명	-1049
▁직장	-1050
▁하죠	-1051
▁힘이	-1052
겠지요	-1053
▁다가가	-1054
▁당신을	-1055
▁사람도	-1056
▁사세요	-1057
▁자신이	-1058
▁하는데	-1059
드릴게요	-1060
▁담	-1061
▁병	-1062
▁책	-1063
거야	-1064
라는	-1065
하나	-1066
▁날이	-1067
▁놓아	-1068
▁배우	-1069
▁봐요	-1070
▁잠시	-1071
▁주변	-1072
▁행동	-1073
▁이유가	-1074
▁첫사랑	-1075
▁하나씩	-1076
▁힘들었	-1077
하겠네요	-1078
▁연락하고	-1079
▁힘내세요	-1080
▁군	-1081
▁능	-1082
▁멀	-1083
▁베	-1084
▁응	-1085
▁찍	-1086
어가	-1087
있는	-1088
▁게임	-1089
▁나서	-1090
▁눈을	-1091
▁되길	-1092
▁성격	-1093
▁익숙	-1094
▁일찍	-1095
스러워	-1096
▁믿어요	-1097
▁사귀고	-1098
▁아닌데	-1099
▁언젠간	-1100
▁친구들	-1101
▁많았어요	-1102
▁뿐이에요	-1103
▁서로에게	-1104
▁신경쓰지	-1105
▁괴	-1106
▁교	-1107
▁맨	-1108
▁메	-1109
▁얘	-1110
로워	-1111
리지	-1112
이별	-1113
▁나도	-1114
▁나을	-1115
▁놀러	-1116
▁도전	-1117
▁마련	-1118
▁무엇	-1119
▁받고	-1120
▁스타	-1121
▁슬픈	-1122
▁않죠	-1123
▁있나	-1124
▁즐거	-1125
▁지났	-1126
▁집착	-1127
다보면	-1128
▁힘들다	-1129
▁해주세요	-1130
▁깊	-1131
▁명	-1132
남친	-1133
래도	-1134
에도	-1135
여친	-1136
▁가서	-1137
▁거죠	-1138
▁관리	-1139
▁나아	-1140
▁나오	-1141
▁느껴	-1142
▁아는	-1143
▁안녕	-1144
▁오랜	-1145
▁이겨	-1146
▁자존	-1147
▁주무	-1148
▁후련	-1149
▁만나는	-1150
▁행복해	-1151
▁힘들게	-1152
▁있었나봐요	-1153
▁곧	-1154
▁법	-1155
▁삶	-1156
▁척	-1157
▁헷	-1158
생활	-1159
어야	-1160
이는	-1161
하길	-1162
▁거짓	-1163
▁끝이	-1164
▁다행	-1165
▁말이	-1166
▁뭐야	-1167
▁알게	-1168
▁여유	-1169
▁연인	-1170
▁용기	-1171
▁우울	-1172
▁위해	-1173
▁잊지	-1174
▁자체	-1175
▁최고	-1176
▁카페	-1177
▁포기	-1178
▁헷갈	-1179
이었을	-1180
▁생각할	-1181
▁원하는	-1182
▁이상형	-1183
▁일어나	-1184
▁좋아해	-1185
▁못하겠어	-1186
▁아무것도	-1187
▁아무래도	-1188
▁이별한지	-1189
▁낫	-1190
▁봤	-1191
▁접	-1192
▁향	-1193
르고	-1194
사를	-1195
여행	-1196
정이	-1197
중에	-1198
지고	-1199
▁꿈에	-1200
▁눈이	-1201
▁되지	-1202
▁부족	-1203
▁비싸	-1204
▁소중	-1205
▁썸타	-1206
▁없이	-1207
▁응원	-1208
▁전에	-1209
▁했어	-1210
했어요	-1211
▁거짓말	-1212
▁곳으로	-1213
▁귀찮아	-1214
▁먹으면	-1215
▁보고싶	-1216
▁여친이	-1217
▁이별후	-1218
▁지금은	-1219
여보세요	-1220
▁먹어야지	-1221
▁사랑했던	-1222
▁주무세요	-1223
▁까	-1224
▁빼	-1225
▁읽	-1226
▁증	-1227
버렸	-1228
져요	-1229
한데	-1230
▁금방	-1231
▁늦지	-1232
▁다를	-1233
▁데려	-1234
▁미안	-1235
▁보면	-1236
▁보통	-1237
▁부러	-1238
▁생일	-1239
▁싸우	-1240
▁없죠	-1241
▁죽을	-1242
▁그녀를	-1243
▁나중에	-1244
▁많아요	-1245
▁사귀는	-1246
▁싶네요	-1247
▁아니라	-1248
▁않아도	-1249
▁예의가	-1250
▁전남친	-1251
▁친구를	-1252
▁필요해	-1253
었나봐요	-1254
▁괜찮을까	-1255
▁좋아하게	-1256
▁좋아하면	-1257
▁필요해요	-1258
▁가져보세요	-1259
▁냉	-1260
▁벗	-1261
▁숨	-1262
▁써	-1263
▁쓸	-1264
▁에	-1265
더라	-1266
리를	-1267
사친	-1268
야죠	-1269
움을	-1270
▁건지	-1271
▁고생	-1272
▁대로	-1273
▁맨날	-1274
▁미리	-1275
▁받는	-1276
▁부분	-1277
▁소식	-1278
▁애가	-1279
▁어렵	-1280
▁우산	-1281
▁월급	-1282
▁일을	-1283
▁잊는	-1284
▁작은	-1285
▁잠이	-1286
▁주는	-1287
▁중에	-1288
▁진정	-1289
▁충전	-1290
스럽게	-1291
이라면	-1292
해주는	-1293
했으면	-1294
▁감정을	-1295
▁남편이	-1296
▁당신은	-1297
▁때까지	-1298
▁만나지	-1299
▁만났어	-1300
▁없네요	-1301
▁이별의	-1302
▁전여친	-1303
겠습니다	-1304
▁중요하지	-1305
▁짝녀한테	-1306
▁친구한테	-1307
▁살펴보세요	-1308
▁헤어졌습니다	-1309
▁확인해보세요	-1310
ᅲᅲ	-1311
▁근	-1312
▁높	-1313
▁산	-1314
▁폰	-1315
건지	-1316
대요	-1317
밖에	-1318
쇼핑	-1319
아서	-1320
으니	-1321
이가	-1322
장이	-1323
하려	-1324
하시	-1325
▁기회	-1326
▁되어	-1327
▁드는	-1328
▁로맨	-1329
▁바쁜	-1330
▁받을	-1331
▁방학	-1332
▁비밀	-1333
▁생길	-1334
▁쉬고	-1335
▁시험	-1336
▁아름	-1337
▁안나	-1338
▁안해	-1339
▁알고	-1340
▁앞에	-1341
▁약속	-1342
▁자책	-1343
▁잠깐	-1344
▁종교	-1345
▁편이	-1346
▁하늘	-1347
▁흘렀	-1348
야겠다	-1349
하겠죠	-1350
해야지	-1351
▁가세요	-1352
▁관심이	-1353
▁누구나	-1354
▁변화가	-1355
▁언제나	-1356
▁예쁘게	-1357
▁해봐요	-1358
▁확실한	-1359
▁힘들죠	-1360
▁고민이야	-1361
▁남자애가	-1362
▁연락해도	-1363
▁좋아하는데	-1364
▁사랑해주세요	-1365
겠네	-1366
기만	-1367
당히	-1368
들어	-1369
들은	-1370
리게	-1371
하니	-1372
▁가기	-1373
▁꾸준	-1374
▁끝내	-1375
▁돈이	-1376
▁마셔	-1377
▁맞춰	-1378
▁멋진	-1379
▁미치	-1380
▁바로	-1381
▁바쁘	-1382
▁분위	-1383
▁시원	-1384
▁않고	-1385
▁이번	-1386
▁이어	-1387
▁장난	-1388
▁즐기	-1389
▁타고	-1390
▁허전	-1391
이라는	-1392
▁고민이	-1393
▁궁금해	-1394
▁그래요	-1395
▁맛있는	-1396
▁사랑할	-1397
▁생각만	-1398
▁아닌지	-1399
▁알려줘	-1400
▁없다면	-1401
▁재미있	-1402
▁즐거운	-1403
▁같습니다	-1404
▁사랑하고	-1405
▁짝남이랑	-1406
▁힘들어요	-1407
▁골	-1408
▁옆	-1409
▁채	-1410
▁칭	-1411
들을	-1412
디어	-1413
일이	-1414
퇴근	-1415
▁당연	-1416
▁됐어	-1417
▁되네	-1418
▁드라	-1419
▁먹을	-1420
▁바라	-1421
▁바보	-1422
▁보지	-1423
▁쇼핑	-1424
▁스킨	-1425
▁시켜	-1426
▁어울	-1427
▁어쩌	-1428
▁여러	-1429
▁이러	-1430
▁절대	-1431
▁존중	-1432
▁취미	-1433
▁칭찬	-1434
▁해결	-1435
더라고	-1436
잖아요	-1437
줬으면	-1438
▁그리고	-1439
▁드디어	-1440
▁못하는	-1441
▁받아들	-1442
▁봅니다	-1443
▁상처받	-1444
▁이제는	-1445
▁있는지	-1446
▁좋겠죠	-1447
▁좋은데	-1448
▁중인데	-1449
▁여자애가	-1450
▁친구들이	-1451
▁힘들겠지만	-1452
▁등	-1453
가를	-1454
줄까	-1455
해져	-1456
▁가면	-1457
▁가야	-1458
▁간다	-1459
▁경우	-1460
▁곳이	-1461
▁동거	-1462
▁때도	-1463
▁마요	-1464
▁문자	-1465
▁뭔가	-1466
▁뭔지	-1467
▁미워	-1468
▁싫다	-1469
▁안경	-1470
▁않길	-1471
▁예민	-1472
▁예쁜	-1473
▁이성	-1474
▁일은	-1475
▁잊고	-1476
▁자격	-1477
▁조언	-1478
▁지쳤	-1479
▁차분	-1480
▁하셨	-1481
▁해서	-1482
▁헤아	-1483
보는게	-1484
해지는	-1485
▁가슴이	-1486
▁괜찮을	-1487
▁두려워	-1488
▁로맨틱	-1489
▁뭐라고	-1490
▁미련이	-1491
▁사람에	-1492
▁사랑해	-1493
▁시간은	-1494
▁어느덧	-1495
▁어려워	-1496
▁짜증나	-1497
더라고요	-1498
신가봐요	-1499
▁거기까지	-1500
▁아닐까요	-1501
▁않는다면	-1502
▁있습니다	-1503
▁자책하지	-1504
▁독	-1505
▁밀	-1506
▁삼	-1507
▁역	-1508
▁택	-1509
▁터	-1510
년이	-1511
받고	-1512
음이	-1513
이밍	-1514
이지	-1515
자리	-1516
전히	-1517
한게	-1518
해졌	-1519
▁10	-1520
▁것을	-1521
▁기본	-1522
▁까먹	-1523
▁나랑	-1524
▁되고	-1525
▁두달	-1526
▁못해	-1527
▁번호	-1528
▁보러	-1529
▁볼까	-1530
▁서운	-1531
▁슬프	-1532
▁썸녀	-1533
▁어쩔	-1534
▁오는	-1535
▁취직	-1536
▁커플	-1537
▁태어	-1538
▁해주	-1539
답니다	-1540
드려요	-1541
▁그대로	-1542
▁그러면	-1543
▁마음도	-1544
▁마음은	-1545
▁문제가	-1546
▁방법이	-1547
▁안되는	-1548
▁타이밍	-1549
▁헤어져	-1550
가봅니다	-1551
아보세요	-1552
▁물어보는	-1553
▁사랑하면	-1554
▁생각하고	-1555
▁축하해요	-1556
▁다행이에요	-1557
▁받아들이는	-1558
▁부담스러워	-1559
▁자연스러운	-1560
▁좋아하는게	-1561
▁꿨	-1562
▁뜻	-1563
▁멈	-1564
▁멍	-1565
▁쌓	-1566
▁클	-1567
▁특	-1568
▁희	-1569
니가	-1570
덤덤	-1571
때는	-1572
리스	-1573
마스	-1574
보여	-1575
생님	-1576
스크	-1577
식을	-1578
심해	-1579
야할	-1580
연애	-1581
자는	-1582
했다	-1583
▁갖고	-1584
▁군대	-1585
▁귀여	-1586
▁떨려	-1587
▁뭐든	-1588
▁배워	-1589
▁불편	-1590
▁사과	-1591
▁상담	-1592
▁소리	-1593
▁일주	-1594
▁잊을	-1595
▁자유	-1596
▁저를	-1597
▁적응	-1598
▁졸업	-1599
▁집중	-1600
▁최선	-1601
▁흔들	-1602
가세요	-1603
오세요	-1604
▁가지고	-1605
▁같네요	-1606
▁것보다	-1607
▁관심을	-1608
▁꾸준히	-1609
▁능력이	-1610
▁무서워	-1611
▁선생님	-1612
▁썸남이	-1613
▁어려운	-1614
▁용기를	-1615
▁위로해	-1616
▁이상한	-1617
▁잊어버	-1618
▁적당히	-1619
▁준비가	-1620
▁충분한	-1621
▁화장실	-1622
상이에요	-1623
▁기다리고	-1624
▁다음에는	-1625
▁말하세요	-1626
▁사람마다	-1627
▁않았으면	-1628
▁진심으로	-1629
▁헤어졌어	-1630
▁후회하지	-1631
▁사람이네요	-1632
▁힘들겠어요	-1633
▁삭	-1634
▁샀	-1635
냄새	-1636
만의	-1637
시켜	-1638
오네	-1639
치가	-1640
한거	-1641
한다	-1642
함이	-1643
▁고마	-1644
▁그건	-1645
▁끝을	-1646
▁나온	-1647
▁누가	-1648
▁당당	-1649
▁대학	-1650
▁두근	-1651
▁몰랐	-1652
▁몸이	-1653
▁배려	-1654
▁병원	-1655
▁삭제	-1656
▁생기	-1657
▁어색	-1658
▁연예	-1659
▁오빠	-1660
▁원래	-1661
▁위험	-1662
▁이기	-1663
▁일어	-1664
▁잠수	-1665
▁잠을	-1666
▁적극	-1667
▁좋았	-1668
▁질투	-1669
▁집안	-1670
▁청소	-1671
▁출근	-1672
▁키우	-1673
하려고	-1674
▁가야지	-1675
▁감정이	-1676
▁그녀가	-1677
▁그사람	-1678
▁남친이	-1679
▁받았어	-1680
▁사람과	-1681
▁스킨십	-1682
▁스타일	-1683
▁있나요	-1684
▁있네요	-1685
▁저에게	-1686
▁제대로	-1687
▁하는게	-1688
았나봐요	-1689
▁사람에게	-1690
▁않을까요	-1691
▁있겠어요	-1692
▁있잖아요	-1693
▁자신에게	-1694
▁후폭풍이	-1695
▁만나보세요	-1696
▁좋아하는지	-1697
▁S	-1698
▁각	-1699
▁걷	-1700
▁권	-1701
▁꼬	-1702
▁셀	-1703
▁철	-1704
▁체	-1705
▁톡	-1706
▁투	-1707
▁팔	-1708
가지	-1709
내고	-1710
내서	-1711
년째	-1712
놓고	-1713
려면	-1714
르는	-1715
사가	-1716
시길	-1717
시는	-1718
었다	-1719
이요	-1720
인거	-1721
▁감사	-1722
▁경험	-1723
▁꿈을	-1724
▁나눠	-1725
▁놀이	-1726
▁다이	-1727
▁담배	-1728
▁당황	-1729
▁무너	-1730
▁무뎌	-1731
▁발표	-1732
▁버려	-1733
▁버텨	-1734
▁보냈	-1735
▁본인	-1736
▁쉽게	-1737
▁싫은	-1738
▁안타	-1739
▁애랑	-1740
▁얘기	-1741
▁어플	-1742
▁올려	-1743
▁좋다	-1744
▁좋지	-1745
▁착각	-1746
▁편지	-1747
▁프로	-1748
▁하기	-1749
됩니다	-1750
인가봐	-1751
하다고	-1752
▁데려다	-1753
▁말하는	-1754
▁머리가	-1755
▁사람의	-1756
▁상황을	-1757
▁서로를	-1758
▁성격이	-1759
▁아름다	-1760
▁안하고	-1761
▁연예인	-1762
▁완전히	-1763
▁있어도	-1764
▁좋아한	-1765
▁하나도	-1766
▁해보는	-1767
▁행복한	-1768
▁후회할	-1769
▁되겠네요	-1770
▁만나자고	-1771
▁보고싶어	-1772
▁일이에요	-1773
▁자신감을	-1774
▁그런가봐요	-1775
▁겨	-1776
▁났	-1777
▁늘	-1778
▁판	-1779
고생	-1780
구나	-1781
리면	-1782
만이	-1783
상을	-1784
성이	-1785
시다	-1786
어머	-1787
없는	-1788
었네	-1789
워질	-1790
이길	-1791
장을	-1792
지네	-1793
질까	-1794
▁같네	-1795
▁과정	-1796
▁귀엽	-1797
▁기운	-1798
▁끝은	-1799
▁나타	-1800
▁동생	-1801
▁드시	-1802
▁말도	-1803
▁먹는	-1804
▁바꿔	-1805
▁바빠	-1806
▁발전	-1807
▁부탁	-1808
▁사실	-1809
▁살짝	-1810
▁새벽	-1811
▁생긴	-1812
▁속이	-1813
▁싶지	-1814
▁안됐	-1815
▁우선	-1816
▁위한	-1817
▁인사	-1818
▁일도	-1819
▁있고	-1820
▁점심	-1821
▁존재	-1822
▁주고	-1823
▁차이	-1824
▁피부	-1825
▁해줘	-1826
으면서	-1827
인가요	-1828
▁그리워	-1829
▁기다릴	-1830
▁놀아요	-1831
▁눈물이	-1832
▁돌아오	-1833
▁맘고생	-1834
▁못하고	-1835
▁무엇이	-1836
▁아무리	-1837
▁안들어	-1838
▁연습을	-1839
▁한동안	-1840
▁호감이	-1841
▁혼자가	-1842
▁힘들지	-1843
리스마스	-1844
했습니다	-1845
▁만나세요	-1846
▁놓아주세요	-1847
▁생각하세요	-1848
▁축하드려요	-1849
▁말씀해주세요	-1850
▁시작해보세요	-1851
NS	-1852
▁7	-1853
▁깔	-1854
▁꺼	-1855
▁뜨	-1856
▁리	-1857
▁침	-1858
나는	-1859
냐고	-1860
력을	-1861
말고	-1862
봐도	-1863
상이	-1864
어트	-1865
었을	-1866
웨딩	-1867
음을	-1868
이다	-1869
줬어	-1870
▁가치	-1871
▁갈까	-1872
▁걸로	-1873
▁계획	-1874
▁고쳐	-1875
▁괜히	-1876
▁괴롭	-1877
▁그랬	-1878
▁그럼	-1879
▁다니	-1880
▁듣고	-1881
▁따로	-1882
▁떠난	-1883
▁면접	-1884
▁목소	-1885
▁못한	-1886
▁무섭	-1887
▁바뀌	-1888
▁받지	-1889
▁배고	-1890
▁버스	-1891
▁비가	-1892
▁살까	-1893
▁속상	-1894
▁쉬는	-1895
▁쓰레	-1896
▁애매	-1897
▁없나	-1898
▁없다	-1899
▁없애	-1900
▁우연	-1901
▁의지	-1902
▁이름	-1903
▁이용	-1904
▁자고	-1905
▁저녁	-1906
▁주면	-1907
▁지우	-1908
▁지쳐	-1909
▁퇴근	-1910
▁프사	-1911
▁피해	-1912
▁학원	-1913
▁한잔	-1914
▁했던	-1915
다가도	-1916
두세요	-1917
드세요	-1918
하다면	-1919
▁SNS	-1920
▁가자고	-1921
▁남자를	-1922
▁되는데	-1923
▁만나서	-1924
▁아는데	-1925
▁외로워	-1926
▁이상해	-1927
▁지나갈	-1928
▁추억이	-1929
▁친구로	-1930
▁괜찮아졌	-1931
▁괜찮아질	-1932
▁다이어트	-1933
▁생각하는	-1934
▁연락하면	-1935
▁오랜만에	-1936
▁좋을텐데	-1937
하지마세요	-1938
▁모르겠네요	-1939
▁사랑하는데	-1940
▁사랑한다고	-1941
▁여자친구와	-1942
▁자연스럽게	-1943
▁크리스마스	-1944
▁현상이에요	-1945
▁말씀해보세요	-1946
▁이야기해보세요	-1947
▁8	-1948
▁낭	-1949
▁뒷	-1950
▁뿌	-1951
▁억	-1952
▁업	-1953
▁트	-1954
▁페	-1955
느라	-1956
됐어	-1957
리기	-1958
서관	-1959
소한	-1960
어서	-1961
였어	-1962
주가	-1963
지면	-1964
치고	-1965
치는	-1966
했을	-1967
▁가벼	-1968
▁간절	-1969
▁거야	-1970
▁거절	-1971
▁건가	-1972
▁견디	-1973
▁꿈이	-1974
▁냄새	-1975
▁누군	-1976
▁눈에	-1977
▁느끼	-1978
▁대해	-1979
▁돈을	-1980
▁되면	-1981
▁많죠	-1982
▁미래	-1983
▁바뀔	-1984
▁반복	-1985
▁불안	-1986
▁비교	-1987
▁사라	-1988
▁소화	-1989
▁신혼	-1990
▁심해	-1991
▁안와	-1992
▁안좋	-1993
▁영원	-1994
▁오해	-1995
▁이거	-1996
▁이사	-1997
▁이혼	-1998
▁인형	-1999
▁일상	-2000
▁있지	-2001
▁주지	-2002
▁취업	-2003
일지도	-2004
하니까	-2005
해봐요	-2006
해지면	-2007
▁결혼식	-2008
▁나이가	-2009
▁날씨가	-2010
▁내일은	-2011
▁도서관	-2012
▁될까요	-2013
▁만나면	-2014
▁뭐하지	-2015
▁분위기	-2016
▁붙잡고	-2017
▁상처를	-2018
▁선택일	-2019
▁소중한	-2020
▁쉬세요	-2021
▁안해도	-2022
▁앞에서	-2023
▁앞으로	-2024
▁어쩌지	-2025
▁없는데	-2026
▁여유를	-2027
▁연락처	-2028
▁일주일	-2029
▁장거리	-2030
▁필요할	-2031
▁했으면	-2032
▁호감을	-2033
▁확실히	-2034
을거예요	-2035
▁기다리는	-2036
▁만났는데	-2037
▁부담스럽	-2038
▁생각나는	-2039
▁않았어요	-2040
▁연락하지	-2041
▁좋아할까	-2042
▁궁금하네요	-2043
▁사람이에요	-2044
▁지켜보세요	-2045
▁짝사랑하는	-2046
▁들어드릴게요	-2047
▁끄	-2048
▁됨	-2049
▁든	-2050
▁딸	-2051
▁뻔	-2052
▁썼	-2053
▁쐬	-2054
▁염	-2055
▁잤	-2056
▁짐	-2057
▁찌	-2058
▁틀	-2059
▁헛	-2060
간이	-2061
거려	-2062
러가	-2063
세먼	-2064
심이	-2065
었던	-2066
요일	-2067
으시	-2068
인듯	-2069
주지	-2070
하셨	-2071
할지	-2072
▁가까	-2073
▁갑작	-2074
▁개인	-2075
▁거울	-2076
▁결과	-2077
▁기념	-2078
▁깔끔	-2079
▁나의	-2080
▁내는	-2081
▁느려	-2082
▁대단	-2083
▁되죠	-2084
▁때는	-2085
▁멋있	-2086
▁못할	-2087
▁미친	-2088
▁불러	-2089
▁비슷	-2090
▁사귈	-2091
▁슬퍼	-2092
▁썸이	-2093
▁않네	-2094
▁야근	-2095
▁역시	-2096
▁옆에	-2097
▁완벽	-2098
▁왔다	-2099
▁잡고	-2100
▁조급	-2101
▁졸려	-2102
▁차별	-2103
▁치과	-2104
▁크게	-2105
▁호감	-2106
듭니다	-2107
면서도	-2108
으려고	-2109
적이든	-2110
▁가능할	-2111
▁걱정돼	-2112
▁걱정되	-2113
▁그녀의	-2114
▁꿈에서	-2115
▁달라고	-2116
▁때네요	-2117
▁마스크	-2118
▁무서운	-2119
▁벗어나	-2120
▁상황이	-2121
▁시작이	-2122
▁쓰레기	-2123
▁아무도	-2124
▁않으면	-2125
▁어디서	-2126
▁어때요	-2127
▁얼마나	-2128
▁엄마가	-2129
▁연애는	-2130
▁예뻐요	-2131
▁왔는데	-2132
▁저도요	-2133
▁집안일	-2134
▁집에서	-2135
▁타는데	-2136
▁편하게	-2137
▁고민하고	-2138
▁사랑해서	-2139
▁생각나네	-2140
▁썸남한테	-2141
▁어떡하지	-2142
▁연락하는	-2143
▁좋아하고	-2144
▁친구들과	-2145
▁필요하죠	-2146
▁하다보면	-2147
▁했습니다	-2148
▁헤어져야	-2149
▁헷갈리게	-2150
▁흘렀네요	-2151
▁남자친구의	-2152
▁알아보세요	-2153
▁여자친구의	-2154
▁이야기네요	-2155
▁있으니까요	-2156
▁전해보세요	-2157
▁지쳤나봐요	-2158
▁노력해보세요	-2159
▁이해해주세요	-2160
▁잊어버리세요	-2161
~~	-2162
▁ᅲ	-2163
▁갚	-2164
▁긍	-2165
▁농	-2166
▁움	-2167
▁죄	-2168
▁창	-2169
▁춥	-2170
▁패	-2171
▁푹	-2172
▁혹	-2173
같이	-2174
남자	-2175
될까	-2176
러워	-2177
려도	-2178
머리	-2179
먹고	-2180
방법	-2181
싶다	-2182
어진	-2183
여자	-2184
오는	-2185
이고	-2186
주고	-2187
준비	-2188
할때	-2189
호흡	-2190
▁거지	-2191
▁견뎌	-2192
▁고통	-2193
▁공허	-2194
▁권태	-2195
▁긍정	-2196
▁기울	-2197
▁깨달	-2198
▁꿨어	-2199
▁나올	-2200
▁남았	-2201
▁남을	-2202
▁남의	-2203
▁놀고	-2204
▁놀아	-2205
▁동물	-2206
▁라면	-2207
▁마무	-2208
▁만드	-2209
▁말할	-2210
▁몰라	-2211
▁문득	-2212
▁보일	-2213
▁부럽	-2214
▁분명	-2215
▁사고	-2216
▁사귄	-2217
▁사야	-2218
▁사회	-2219
▁샀어	-2220
▁상태	-2221
▁생활	-2222
▁선톡	-2223
▁시계	-2224
▁실망	-2225
▁쓰는	-2226
▁아까	-2227
▁않게	-2228
▁알았	-2229
▁야경	-2230
▁어서	-2231
▁어장	-2232
▁외로	-2233
▁원망	-2234
▁유지	-2235
▁은근	-2236
▁이건	-2237
▁이럴	-2238
▁이루	-2239
▁인간	-2240
▁전부	-2241
▁정확	-2242
▁줘도	-2243
▁지워	-2244
▁차가	-2245
▁추워	-2246
▁친한	-2247
▁택시	-2248
▁텐데	-2249
▁판단	-2250
▁평소	-2251
▁혹시	-2252
▁화가	-2253
▁희망	-2254
립니다	-2255
었어요	-2256
으니까	-2257
한다면	-2258
해볼까	-2259
▁결정을	-2260
▁그동안	-2261
▁그래서	-2262
▁기념일	-2263
▁남사친	-2264
▁당신도	-2265
▁먹을까	-2266
▁무덤덤	-2267
▁미세먼	-2268
▁변화를	-2269
▁상처가	-2270
▁생겼어	-2271
▁서로의	-2272
▁실감이	-2273
▁심호흡	-2274
▁썸인지	-2275
▁썸타는	-2276
▁아침에	-2277
▁안타깝	-2278
▁언제쯤	-2279
▁없다고	-2280
▁여사친	-2281
▁여행을	-2282
▁연애를	-2283
▁용기가	-2284
▁이유를	-2285
▁인생은	-2286
▁있는게	-2287
▁있지만	-2288
▁잊어야	-2289
▁잊혀지	-2290
▁잘해줘	-2291
▁저한테	-2292
▁지나갔	-2293
▁지내고	-2294
▁짝녀랑	-2295
▁찾아올	-2296
▁필요는	-2297
▁할텐데	-2298
▁해야지	-2299
▁후회가	-2300
였나봐요	-2301
▁가지세요	-2302
▁남자들은	-2303
▁당당하게	-2304
▁만나는게	-2305
▁받아들여	-2306
▁버리세요	-2307
▁사람으로	-2308
▁사랑하지	-2309
▁상대방을	-2310
▁생각하지	-2311
▁아니라고	-2312
▁여기까지	-2313
▁이야기를	-2314
▁좋아해도	-2315
▁즐기세요	-2316
▁행복하게	-2317
▁회사에서	-2318
▁결정이었을	-2319
▁무시하세요	-2320
▁않으니까요	-2321
▁여자친구랑	-2322
▁헤어졌는데	-2323
▁기다려보세요	-2324
▁만들어보세요	-2325
ᄒᄒ	-2326
▁걔	-2327
▁낮	-2328
▁넣	-2329
▁놔	-2330
▁딴	-2331
▁센	-2332
▁쓴	-2333
▁씻	-2334
▁컨	-2335
▁컴	-2336
거를	-2337
나게	-2338
냐에	-2339
되는	-2340
두고	-2341
디션	-2342
렸어	-2343
리네	-2344
릴까	-2345
스타	-2346
점을	-2347
지로	-2348
치지	-2349
해줄	-2350
했네	-2351
▁가요	-2352
▁거니	-2353
▁계절	-2354
▁공통	-2355
▁그것	-2356
▁길이	-2357
▁깊은	-2358
▁끝난	-2359
▁나왔	-2360
▁나은	-2361
▁놓고	-2362
▁다들	-2363
▁다양	-2364
▁더워	-2365
▁동안	-2366
▁두고	-2367
▁때론	-2368
▁때를	-2369
▁마다	-2370
▁막말	-2371
▁만든	-2372
▁말투	-2373
▁먹었	-2374
▁멈추	-2375
▁반대	-2376
▁봐도	-2377
▁소문	-2378
▁소원	-2379
▁수가	-2380
▁수록	-2381
▁스키	-2382
▁신고	-2383
▁쐬고	-2384
▁아예	-2385
▁안전	-2386
▁어린	-2387
▁울적	-2388
▁음악	-2389
▁이게	-2390
▁있길	-2391
▁자세	-2392
▁조절	-2393
▁중국	-2394
▁지난	-2395
▁진급	-2396
▁짧은	-2397
▁채워	-2398
▁축구	-2399
▁취향	-2400
▁클럽	-2401
▁통보	-2402
▁편한	-2403
▁편할	-2404
▁평생	-2405
▁피할	-2406
▁하게	-2407
▁현금	-2408
▁현재	-2409
버렸어	-2410
일까요	-2411
해주고	-2412
▁가치관	-2413
▁감정에	-2414
▁거겠죠	-2415
▁그녀는	-2416
▁나왔어	-2417
▁됐으면	-2418
▁되기도	-2419
▁됩니다	-2420
▁드라마	-2421
▁똑같은	-2422
▁만난지	-2423
▁많은데	-2424
▁모르고	-2425
▁미안해	-2426
▁방학이	-2427
▁부러워	-2428
▁상대를	-2429
▁생각하	-2430
▁선물이	-2431
▁선택을	-2432
▁시어머	-2433
▁아니면	-2434
▁아프네	-2435
▁안돼요	-2436
▁안하는	-2437
▁애한테	-2438
▁언젠가	-2439
▁없어서	-2440
▁없으면	-2441
▁연락은	-2442
▁운동을	-2443
▁위로가	-2444
▁이겨낼	-2445
▁있겠죠	-2446
▁있겠지	-2447
▁자신에	-2448
▁좋지만	-2449
▁진정한	-2450
▁최고죠	-2451
▁하면서	-2452
▁한달이	-2453
▁행복할	-2454
▁가능성이	-2455
▁달라지는	-2456
▁떨어졌어	-2457
▁말이에요	-2458
▁부러워요	-2459
▁상대방이	-2460
▁생겼는데	-2461
▁아니라면	-2462
▁안됐는데	-2463
▁알면서도	-2464
▁용기내서	-2465
▁이성으로	-2466
▁자존감이	-2467
▁좋아하던	-2468
▁지금처럼	-2469
▁짝사랑이	-2470
▁충분해요	-2471
▁한동안은	-2472
▁힘들어서	-2473
▁힘들었을	-2474
▁방법이에요	-2475
▁부담스럽지	-2476
▁사람들에게	-2477
▁사랑한다면	-2478
▁여자애한테	-2479
▁응원합니다	-2480
▁있을거예요	-2481
▁적극적으로	-2482
▁정리하는게	-2483
▁헤어지자고	-2484
▁준비해보세요	-2485
ns	-2486
▁곁	-2487
▁깎	-2488
▁넌	-2489
▁뛰	-2490
▁맥	-2491
▁밝	-2492
▁악	-2493
▁으	-2494
▁잃	-2495
▁짓	-2496
▁째	-2497
▁찬	-2498
▁케	-2499
▁합	-2500
▁헬	-2501
가네	-2502
가면	-2503
가봐	-2504
간의	-2505
겼어	-2506
데요	-2507
배가	-2508
부를	-2509
수도	-2510
시면	-2511
식이	-2512
아야	-2513
아지	-2514
없어	-2515
울까	-2516
웠어	-2517
이팅	-2518
장고	-2519
전에	-2520
전환	-2521
지를	-2522
통보	-2523
하러	-2524
하루	-2525
sns	-2526
▁ᅲᅲ	-2527
▁각자	-2528
▁갔다	-2529
▁거의	-2530
▁걸릴	-2531
▁것은	-2532
▁결심	-2533
▁골라	-2534
▁곳에	-2535
▁과일	-2536
▁교회	-2537
▁근처	-2538
▁글을	-2539
▁긴장	-2540
▁나면	-2541
▁나쁘	-2542
▁남겨	-2543
▁늦게	-2544
▁단단	-2545
▁달달	-2546
▁당장	-2547
▁두번	-2548
▁둘이	-2549
▁드네	-2550
▁만족	-2551
▁말까	-2552
▁말은	-2553
▁맥주	-2554
▁무리	-2555
▁바꾸	-2556
▁바꿀	-2557
▁밖에	-2558
▁변덕	-2559
▁분이	-2560
▁불행	-2561
▁사용	-2562
▁산책	-2563
▁상사	-2564
▁새로	-2565
▁설렘	-2566
▁셀프	-2567
▁시기	-2568
▁신청	-2569
▁싶네	-2570
▁쓰고	-2571
▁쓸데	-2572
▁아빠	-2573
▁알면	-2574
▁여기	-2575
▁예쁘	-2576
▁오면	-2577
▁올라	-2578
▁왜이	-2579
▁외국	-2580
▁움직	-2581
▁있네	-2582
▁자리	-2583
▁잘생	-2584
▁잘해	-2585
▁전공	-2586
▁전환	-2587
▁제발	-2588
▁중간	-2589
▁진실	-2590
▁집이	-2591
▁초대	-2592
▁최악	-2593
▁태도	-2594
▁페북	-2595
▁하네	-2596
▁화를	-2597
▁휴가	-2598
더라도	-2599
만으로	-2600
싶은데	-2601
어가네	-2602
을지도	-2603
줄게요	-2604
하거나	-2605
하지만	-2606
▁곳에서	-2607
▁공부는	-2608
▁관계를	-2609
▁그렇지	-2610
▁기회가	-2611
▁끝까지	-2612
▁나이는	-2613
▁남자는	-2614
▁내세요	-2615
▁냉장고	-2616
▁느낌이	-2617
▁따뜻한	-2618
▁떨어져	-2619
▁마무리	-2620
▁모습이	-2621
▁물어보	-2622
▁물어봐	-2623
▁뭐하고	-2624
▁믿음이	-2625
▁부족한	-2626
▁사소한	-2627
▁사이가	-2628
▁상관없	-2629
▁생각에	-2630
▁생각은	-2631
▁생각한	-2632
▁선물을	-2633
▁시원한	-2634
▁썸인데	-2635
▁아니야	-2636
▁여자를	-2637
▁온전히	-2638
▁인기가	-2639
▁있다고	-2640
▁정리할	-2641
▁제자리	-2642
▁좋겠지	-2643
▁지났네	-2644
▁진심을	-2645
▁집들이	-2646
▁차분히	-2647
▁최선의	-2648
▁파이팅	-2649
▁표현해	-2650
셨나봐요	-2651
이었으면	-2652
▁고백해도	-2653
▁그렇지만	-2654
▁기분전환	-2655
▁마음으로	-2656
▁무엇이든	-2657
▁부럽네요	-2658
▁부모님이	-2659
▁사랑으로	-2660
▁썸남이랑	-2661
▁아름다운	-2662
▁아프네요	-2663
▁없나봐요	-2664
▁이별통보	-2665
▁일이네요	-2666
▁좋겠지만	-2667
▁좋아해요	-2668
▁중요하죠	-2669
▁피하세요	-2670
▁하루하루	-2671
▁하셨네요	-2672
▁환승이별	-2673
▁힘들겠지	-2674
▁남자친구와	-2675
▁생각이에요	-2676
▁습관이에요	-2677
▁알려주세요	-2678
▁적어보세요	-2679
▁힘들겠네요	-2680
▁고백해보세요	-2681
▁사용해보세요	-2682
▁필요하겠네요	-2683
▁힘들었겠어요	-2684
▁9	-2685
▁김	-2686
▁꿀	-2687
▁디	-2688
▁맡	-2689
▁백	-2690
▁벚	-2691
▁블	-2692
▁뽑	-2693
▁숙	-2694
▁싱	-2695
▁콩	-2696
▁푸	-2697
▁핑	-2698
가락	-2699
갈까	-2700
갔어	-2701
규직	-2702
기간	-2703
나면	-2704
달째	-2705
대폰	-2706
도록	-2707
듯이	-2708
래요	-2709
먹기	-2710
무원	-2711
부로	-2712
샤워	-2713
순위	-2714
시락	-2715
았던	-2716
오면	-2717
우면	-2718
유증	-2719
이니	-2720
인이	-2721
장면	-2722
제를	-2723
지게	-2724
포즈	-2725
하던	-2726
혼자	-2727
▁30	-2728
▁간접	-2729
▁겨울	-2730
▁고맙	-2731
▁공시	-2732
▁과거	-2733
▁과식	-2734
▁교양	-2735
▁글로	-2736
▁기술	-2737
▁남아	-2738
▁낫죠	-2739
▁내요	-2740
▁다되	-2741
▁달콤	-2742
▁됐네	-2743
▁떨리	-2744
▁라고	-2745
▁마실	-2746
▁많을	-2747
▁맘에	-2748
▁맘이	-2749
▁맛난	-2750
▁매력	-2751
▁머릿	-2752
▁메뉴	-2753
▁면도	-2754
▁모아	-2755
▁목표	-2756
▁물리	-2757
▁밀당	-2758
▁반지	-2759
▁벚꽃	-2760
▁변명	-2761
▁보기	-2762
▁보니	-2763
▁보험	-2764
▁부딪	-2765
▁부자	-2766
▁빠르	-2767
▁선이	-2768
▁소비	-2769
▁심심	-2770
▁썸의	-2771
▁아껴	-2772
▁아쉬	-2773
▁애정	-2774
▁어찌	-2775
▁오네	-2776
▁오랫	-2777
▁외롭	-2778
▁용돈	-2779
▁용서	-2780
▁이뤄	-2781
▁이불	-2782
▁인기	-2783
▁있게	-2784
▁절약	-2785
▁죽고	-2786
▁중독	-2787
▁지칠	-2788
▁참고	-2789
▁청첩	-2790
▁파혼	-2791
▁편안	-2792
▁풀릴	-2793
▁한다	-2794
▁행운	-2795
▁향수	-2796
▁헬스	-2797
거같아	-2798
된다고	-2799
었으면	-2800
이라고	-2801
이라니	-2802
장에서	-2803
하기는	-2804
하는지	-2805
하다가	-2806
하자고	-2807
할게요	-2808
▁sns	-2809
▁건강에	-2810
▁공무원	-2811
▁관계가	-2812
▁귀여워	-2813
▁그만큼	-2814
▁극복할	-2815
▁나에게	-2816
▁남자랑	-2817
▁노래방	-2818
▁달라지	-2819
▁도시락	-2820
▁됐는데	-2821
▁드라이	-2822
▁들어가	-2823
▁들어와	-2824
▁모습을	-2825
▁뭐라도	-2826
▁바쁘게	-2827
▁배고파	-2828
▁병원에	-2829
▁보내고	-2830
▁보이고	-2831
▁사귀기	-2832
▁사랑했	-2833
▁살아야	-2834
▁새벽에	-2835
▁선물은	-2836
▁세상에	-2837
▁시간도	-2838
▁시기가	-2839
▁아무렇	-2840
▁아프다	-2841
▁않는데	-2842
▁앞머리	-2843
▁억지로	-2844
▁여자랑	-2845
▁여전히	-2846
▁연애가	-2847
▁우세요	-2848
▁울어도	-2849
▁의사를	-2850
▁인생이	-2851
▁있다는	-2852
▁있어서	-2853
▁있으니	-2854
▁자격이	-2855
▁자신만	-2856
▁전화를	-2857
▁준비를	-2858
▁찾아가	-2859
▁친구의	-2860
▁태어난	-2861
▁표현이	-2862
▁피곤해	-2863
▁혼자만	-2864
▁혼자서	-2865
▁휴대폰	-2866
셔보세요	-2867
시겠어요	-2868
어주세요	-2869
해야할까	-2870
했겠어요	-2871
▁걱정하지	-2872
▁나가세요	-2873
▁내보세요	-2874
▁누군가를	-2875
▁따뜻하게	-2876
▁만나기로	-2877
▁만들어요	-2878
▁맞는걸까	-2879
▁보고싶다	-2880
▁생각하면	-2881
▁솔직하게	-2882
▁스트레칭	-2883
▁싶습니다	-2884
▁않겠지만	-2885
▁없겠네요	-2886
▁여자들은	-2887
▁여자한테	-2888
▁이별에는	-2889
▁잊으세요	-2890
▁잘했어요	-2891
▁점심시간	-2892
▁준비하는	-2893
▁하나봐요	-2894
▁했나봐요	-2895
▁걸어보세요	-2896
▁고백했는데	-2897
▁나눠보세요	-2898
▁남자친구랑	-2899
▁다녀오세요	-2900
▁다르겠지만	-2901
▁돌려보세요	-2902
▁믿어보세요	-2903
▁바쁜가봐요	-2904
▁스스로에게	-2905
▁좋아해주는	-2906
▁지금이라도	-2907
▁친구들이랑	-2908
▁필요하다면	-2909
▁힘든가봅니다	-2910
ᅮᅮ	-2911
▁겁	-2912
▁격	-2913
▁급	-2914
▁깜	-2915
▁꼼	-2916
▁끈	-2917
▁넓	-2918
▁녹	-2919
▁놈	-2920
▁닮	-2921
▁땀	-2922
▁띄	-2923
▁잇	-2924
▁찔	-2925
▁쳐	-2926
▁털	-2927
거죠	-2928
까봐	-2929
나고	-2930
나서	-2931
내는	-2932
냈어	-2933
년의	-2934
다발	-2935
데이	-2936
되면	-2937
든지	-2938
따라	-2939
라리	-2940
라이	-2941
렌타	-2942
려구	-2943
려나	-2944
린다	-2945
받아	-2946
번호	-2947
보내	-2948
보니	-2949
분이	-2950
빼로	-2951
생숭	-2952
어두	-2953
정도	-2954
주려	-2955
지마	-2956
치기	-2957
터리	-2958
테리	-2959
하긴	-2960
하대	-2961
함을	-2962
▁가도	-2963
▁감성	-2964
▁개강	-2965
▁거면	-2966
▁경쟁	-2967
▁곁에	-2968
▁그는	-2969
▁그대	-2970
▁기원	-2971
▁깨끗	-2972
▁남기	-2973
▁내리	-2974
▁너를	-2975
▁노후	-2976
▁놀랐	-2977
▁눈치	-2978
▁늦은	-2979
▁답장	-2980
▁대출	-2981
▁데는	-2982
▁떠오	-2983
▁맛집	-2984
▁맞추	-2985
▁매달	-2986
▁명절	-2987
▁모른	-2988
▁몰래	-2989
▁못잊	-2990
▁무거	-2991
▁반가	-2992
▁받은	-2993
▁밝혀	-2994
▁버릴	-2995
▁별거	-2996
▁보다	-2997
▁봄이	-2998
▁빠를	-2999
▁사업	-3000
▁살기	-3001
▁삶을	-3002
▁생겨	-3003
▁샤워	-3004
▁성장	-3005
▁속에	-3006
▁수다	-3007
▁술마	-3008
▁술을	-3009
▁심경	-3010
▁싱숭	-3011
▁썸은	-3012
▁썸을	-3013
▁애들	-3014
▁어머	-3015
▁업무	-3016
▁없지	-3017
▁에휴	-3018
▁여름	-3019
▁염색	-3020
▁왔네	-3021
▁외모	-3022
▁유부	-3023
▁은연	-3024
▁의외	-3025
▁이미	-3026
▁인내	-3027
▁입을	-3028
▁잘되	-3029
▁장소	-3030
▁중인	-3031
▁지는	-3032
▁참는	-3033
▁콩깍	-3034
▁통해	-3035
▁투자	-3036
▁핑계	-3037
▁하다	-3038
▁하던	-3039
▁해보	-3040
▁회식	-3041
▁회원	-3042
▁휴식	-3043
▁흐르	-3044
갑니다	-3045
기세요	-3046
내세요	-3047
르세요	-3048
셨네요	-3049
시군요	-3050
왔는데	-3051
을거라	-3052
이었길	-3053
졌으면	-3054
줬는데	-3055
하기도	-3056
하느라	-3057
하는거	-3058
하지는	-3059
▁가끔은	-3060
▁가는데	-3061
▁감정의	-3062
▁거리를	-3063
▁결혼은	-3064
▁고민임	-3065
▁고백을	-3066
▁과정이	-3067
▁꽃다발	-3068
▁나보다	-3069
▁나을까	-3070
▁나혼자	-3071
▁남자들	-3072
▁내려놓	-3073
▁너에게	-3074
▁노력하	-3075
▁달라진	-3076
▁답답한	-3077
▁답답해	-3078
▁도와줘	-3079
▁도움을	-3080
▁되는지	-3081
▁마시고	-3082
▁말하지	-3083
▁못해요	-3084
▁받으면	-3085
▁발렌타	-3086
▁배우는	-3087
▁보내는	-3088
▁보이지	-3089
▁복잡한	-3090
▁본인의	-3091
▁부분이	-3092
▁빼빼로	-3093
▁사진을	-3094
▁생겼네	-3095
▁솔직한	-3096
▁쉬어도	-3097
▁습관을	-3098
▁않아서	-3099
▁않을까	-3100
▁알아차	-3101
▁없을까	-3102
▁연애에	-3103
▁완벽한	-3104
▁왔으면	-3105
▁외로운	-3106
▁우리는	-3107
▁위로봇	-3108
▁이러지	-3109
▁이별도	-3110
▁이별에	-3111
▁이어나	-3112
▁이유는	-3113
▁이제야	-3114
▁이해가	-3115
▁인생을	-3116
▁일어났	-3117
▁일하는	-3118
▁있지요	-3119
▁자체가	-3120
▁재미가	-3121
▁정리를	-3122
▁정신차	-3123
▁좋으면	-3124
▁주말에	-3125
▁주말이	-3126
▁주변에	-3127
▁차라리	-3128
▁표현을	-3129
▁해주는	-3130
▁행복은	-3131
▁행복을	-3132
▁헤어질	-3133
▁현실을	-3134
▁현재를	-3135
▁회사는	-3136
겨보세요	-3137
▁가능해요	-3138
▁결혼하면	-3139
▁그녀에게	-3140
▁기다리면	-3141
▁기대세요	-3142
▁노력하는	-3143
▁다르겠죠	-3144
▁다음부터	-3145
▁두근거리	-3146
▁로맨틱한	-3147
▁마련이죠	-3148
▁마음대로	-3149
▁바쁘거나	-3150
▁상대에게	-3151
▁슬프네요	-3152
▁싱숭생숭	-3153
▁써보세요	-3154
▁않나봐요	-3155
▁알다가도	-3156
▁어려워요	-3157
▁어울리는	-3158
▁오랫동안	-3159
▁익숙해지	-3160
▁있었으면	-3161
▁있을까요	-3162
▁있을지도	-3163
▁정리하는	-3164
▁좋아했던	-3165
▁지났네요	-3166
▁직장에서	-3167
▁짝사랑은	-3168
▁타이밍이	-3169
▁프로포즈	-3170
▁해야할까	-3171
▁헤아리는	-3172
▁헤어졌네	-3173
▁헤어지면	-3174
▁헤어지지	-3175
▁현실적인	-3176
▁흔들리지	-3177
▁힘듭니다	-3178
으신가봐요	-3179
인가봅니다	-3180
▁감사합니다	-3181
▁고생했어요	-3182
▁골라보세요	-3183
▁되었습니다	-3184
▁드셔보세요	-3185
▁들어보세요	-3186
▁마련이에요	-3187
▁마지막으로	-3188
▁맞았나봐요	-3189
▁스트레스가	-3190
▁시어머니가	-3191
▁아니니까요	-3192
▁있더라고요	-3193
▁조금이라도	-3194
▁다가가보세요	-3195
▁로맨틱하네요	-3196
▁복잡하겠어요	-3197
▁부탁해보세요	-3198
▁여자친구에게	-3199
▁표현해보세요	-3200
..	-3201
▁A	-3202
▁널	-3203
▁년	-3204
▁늙	-3205
▁땡	-3206
▁봉	-3207
▁섬	-3208
▁씁	-3209
▁얻	-3210
▁옴	-3211
▁왕	-3212
▁왤	-3213
▁웬	-3214
▁젖	-3215
▁짱	-3216
▁폭	-3217
▁형	-3218
▁효	-3219
각이	-3220
걸로	-3221
겹살	-3222
공평	-3223
난다	-3224
답을	-3225
대한	-3226
도가	-3227
럽게	-3228
려서	-3229
만은	-3230
부여	-3231
분들	-3232
선을	-3233
센터	-3234
셔요	-3235
숙사	-3236
스는	-3237
시원	-3238
었길	-3239
육아	-3240
이스	-3241
있어	-3242
정보	-3243
정을	-3244
주면	-3245
지기	-3246
쳤어	-3247
통수	-3248
해진	-3249
활동	-3250
히는	-3251
▁가만	-3252
▁간단	-3253
▁감고	-3254
▁같지	-3255
▁걸리	-3256
▁걸어	-3257
▁구멍	-3258
▁귀가	-3259
▁그립	-3260
▁기간	-3261
▁기준	-3262
▁길러	-3263
▁깨요	-3264
▁나지	-3265
▁남은	-3266
▁너도	-3267
▁느낄	-3268
▁다닐	-3269
▁다리	-3270
▁다정	-3271
▁단계	-3272
▁답이	-3273
▁되돌	-3274
▁들고	-3275
▁딸기	-3276
▁똑똑	-3277
▁로또	-3278
▁많지	-3279
▁매너	-3280
▁멀리	-3281
▁멀어	-3282
▁메모	-3283
▁모자	-3284
▁무색	-3285
▁문신	-3286
▁뭐라	-3287
▁바다	-3288
▁반응	-3289
▁받으	-3290
▁보낼	-3291
▁봉사	-3292
▁봤어	-3293
▁비난	-3294
▁비정	-3295
▁비참	-3296
▁빌려	-3297
▁사면	-3298
▁상상	-3299
▁새해	-3300
▁성별	-3301
▁성향	-3302
▁센스	-3303
▁솔로	-3304
▁수는	-3305
▁수면	-3306
▁순수	-3307
▁술이	-3308
▁시키	-3309
▁신뢰	-3310
▁신중	-3311
▁실내	-3312
▁심리	-3313
▁싸워	-3314
▁아플	-3315
▁악몽	-3316
▁애교	-3317
▁어이	-3318
▁에너	-3319
▁여우	-3320
▁연속	-3321
▁왤케	-3322
▁운전	-3323
▁웃을	-3324
▁웬수	-3325
▁은퇴	-3326
▁의심	-3327
▁의욕	-3328
▁이직	-3329
▁인턴	-3330
▁일만	-3331
▁입어	-3332
▁잇몸	-3333
▁있기	-3334
▁자괴	-3335
▁잘지	-3336
▁잤어	-3337
▁적금	-3338
▁정상	-3339
▁주기	-3340
▁지갑	-3341
▁지도	-3342
▁지진	-3343
▁착한	-3344
▁참견	-3345
▁찾는	-3346
▁천재	-3347
▁체육	-3348
▁쳐다	-3349
▁충격	-3350
▁치료	-3351
▁카드	-3352
▁큰일	-3353
▁통화	-3354
▁특별	-3355
▁하시	-3356
▁학생	-3357
▁한거	-3358
▁한숨	-3359
▁해봤	-3360
▁해외	-3361
▁허무	-3362
▁헛헛	-3363
▁후가	-3364
▁후에	-3365
가는데	-3366
개월이	-3367
개월째	-3368
겼는데	-3369
다는건	-3370
더라구	-3371
드리고	-3372
버렸네	-3373
봅시다	-3374
야할까	-3375
었네요	-3376
에게나	-3377
였는데	-3378
을텐데	-3379
이세요	-3380
점에서	-3381
하나봐	-3382
하라고	-3383
해야할	-3384
해하지	-3385
▁가벼운	-3386
▁가족이	-3387
▁강아지	-3388
▁같아서	-3389
▁걱정이	-3390
▁결혼할	-3391
▁고백할	-3392
▁그러고	-3393
▁그럼요	-3394
▁그리운	-3395
▁기숙사	-3396
▁기억이	-3397
▁기회를	-3398
▁끝났어	-3399
▁나만의	-3400
▁나쁘지	-3401
▁나아졌	-3402
▁나아질	-3403
▁나타날	-3404
▁남에게	-3405
▁누구든	-3406
▁눈치가	-3407
▁느끼는	-3408
▁늘어요	-3409
▁단단히	-3410
▁달콤한	-3411
▁당했어	-3412
▁대해서	-3413
▁돌아가	-3414
▁돌아올	-3415
▁두달이	-3416
▁들었어	-3417
▁따뜻할	-3418
▁마시면	-3419
▁만나도	-3420
▁만드는	-3421
▁만들고	-3422
▁많아서	-3423
▁맛나게	-3424
▁머리랑	-3425
▁머릿속	-3426
▁모든걸	-3427
▁모르게	-3428
▁뭐할까	-3429
▁불편해	-3430
▁사랑과	-3431
▁사랑도	-3432
▁사랑하	-3433
▁사야지	-3434
▁사이에	-3435
▁사정이	-3436
▁삼겹살	-3437
▁생기면	-3438
▁성공할	-3439
▁세상은	-3440
▁소화제	-3441
▁시작해	-3442
▁신나는	-3443
▁실수를	-3444
▁싶다고	-3445
▁썸인가	-3446
▁아까워	-3447
▁아니죠	-3448
▁아이돌	-3449
▁아침이	-3450
▁안되네	-3451
▁어떨까	-3452
▁없어도	-3453
▁여유가	-3454
▁여행도	-3455
▁연애로	-3456
▁영화관	-3457
▁오늘이	-3458
▁우연히	-3459
▁위해서	-3460
▁음식을	-3461
▁이루어	-3462
▁자격증	-3463
▁자신감	-3464
▁잘못된	-3465
▁잘못인	-3466
▁전화가	-3467
▁종교가	-3468
▁찾기를	-3469
▁청첩장	-3470
▁컨디션	-3471
▁하고싶	-3472
▁하는건	-3473
▁하늘을	-3474
▁하루도	-3475
▁하자고	-3476
▁현실의	-3477
▁혼자도	-3478
▁회사와	-3479
▁후회는	-3480
▁흐르고	-3481
렸나봐요	-3482
았습니다	-3483
하고싶어	-3484
하시군요	-3485
해야겠지	-3486
▁결혼해도	-3487
▁고백하는	-3488
▁고백하면	-3489
▁공부해서	-3490
▁관심사를	-3491
▁궁금해요	-3492
▁그렇다면	-3493
▁긍정적인	-3494
▁기다리지	-3495
▁까먹었다	-3496
▁놀러가고	-3497
▁느낌이야	-3498
▁데이트를	-3499
▁드릴게요	-3500
▁마셔야지	-3501
▁말이네요	-3502
▁말해볼까	-3503
▁목소리를	-3504
▁미세먼지	-3505
▁사람들은	-3506
▁생겼으면	-3507
▁세상에서	-3508
▁싫어하는	-3509
▁아니지만	-3510
▁알아보고	-3511
▁어디까지	-3512
▁오늘따라	-3513
▁왔습니다	-3514
▁우선순위	-3515
▁유지하는	-3516
▁의미부여	-3517
▁이번에는	-3518
▁잠수이별	-3519
▁좋아하나	-3520
▁좋았는데	-3521
▁중입니다	-3522
▁줘보세요	-3523
▁짝녀에게	-3524
▁추천해요	-3525
▁해야겠다	-3526
▁해야할지	-3527
▁행복해지	-3528
▁헤어지자	-3529
▁회원정보	-3530
▁관리하세요	-3531
▁괜찮아졌길	-3532
▁기다리는게	-3533
▁다르겠지요	-3534
▁말해주세요	-3535
▁먹어보세요	-3536
▁물어보는게	-3537
▁받아보세요	-3538
▁보내주세요	-3539
▁사랑이네요	-3540
▁생각만해도	-3541
▁생각했는데	-3542
▁소식이네요	-3543
▁아무렇지도	-3544
▁읽어보세요	-3545
▁있나봅니다	-3546
▁좋아하는거	-3547
▁챙겨드세요	-3548
▁취해보세요	-3549
▁사람인가봐요	-3550
▁사랑했나봐요	-3551
▁생각했나봐요	-3552
▁여자친구한테	-3553
▁좋아하나봐요	-3554
▁노력하겠습니다	-3555
▁거기까지인가봐요	-3556
▁검	-3557
▁꽤	-3558
▁끌	-3559
▁끓	-3560
▁낙	-3561
▁니	-3562
▁땅	-3563
▁땐	-3564
▁레	-3565
▁며	-3566
▁브	-3567
▁빈	-3568
▁색	-3569
▁쌩	-3570
▁앉	-3571
▁쟁	-3572
▁짠	-3573
▁쪼	-3574
▁칼	-3575
▁탄	-3576
▁탔	-3577
▁활	-3578
▁휘	-3579
▁흥	-3580
간다	-3581
같지	-3582
기력	-3583
길이	-3584
나나	-3585
났어	-3586
너무	-3587
년간	-3588
년을	-3589
담을	-3590
도를	-3591
되길	-3592
되지	-3593
드름	-3594
들지	-3595
라우	-3596
란게	-3597
랑이	-3598
렸을	-3599
료가	-3600
리러	-3601
만한	-3602
모습	-3603
복이	-3604
비가	-3605
셔야	-3606
소음	-3607
수있	-3608
순간	-3609
스피	-3610
시키	-3611
쓰는	-3612
양이	-3613
였을	-3614
우스	-3615
이래	-3616
인다	-3617
일차	-3618
자를	-3619
장에	-3620
적령	-3621
제가	-3622
종일	-3623
주도	-3624
지길	-3625
출발	-3626
침이	-3627
침표	-3628
콜릿	-3629
크닉	-3630
터가	-3631
토닥	-3632
트북	-3633
하철	-3634
호회	-3635
▁15	-3636
▁간사	-3637
▁강렬	-3638
▁거랑	-3639
▁거요	-3640
▁건조	-3641
▁검색	-3642
▁겨우	-3643
▁고칠	-3644
▁공개	-3645
▁그를	-3646
▁그저	-3647
▁기도	-3648
▁길어	-3649
▁깨닫	-3650
▁꿈은	-3651
▁끝도	-3652
▁끝에	-3653
▁끝인	-3654
▁나네	-3655
▁난방	-3656
▁남는	-3657
▁남지	-3658
▁냉정	-3659
▁너는	-3660
▁노는	-3661
▁놀죠	-3662
▁니가	-3663
▁단둘	-3664
▁달려	-3665
▁대리	-3666
▁덜할	-3667
▁덤덤	-3668
▁동성	-3669
▁든든	-3670
▁들이	-3671
▁때로	-3672
▁뛰어	-3673
▁마셨	-3674
▁막혀	-3675
▁말로	-3676
▁맛이	-3677
▁매주	-3678
▁멍청	-3679
▁못했	-3680
▁발목	-3681
▁버티	-3682
▁보게	-3683
▁봐서	-3684
▁부드	-3685
▁비싼	-3686
▁빠져	-3687
▁사겨	-3688
▁사내	-3689
▁살이	-3690
▁살지	-3691
▁상의	-3692
▁생리	-3693
▁서툴	-3694
▁섬유	-3695
▁성숙	-3696
▁세워	-3697
▁셀카	-3698
▁술만	-3699
▁신기	-3700
▁쓰지	-3701
▁아기	-3702
▁아깝	-3703
▁아쉽	-3704
▁알기	-3705
▁애를	-3706
▁약을	-3707
▁약이	-3708
▁어필	-3709
▁언니	-3710
▁오지	-3711
▁올해	-3712
▁와서	-3713
▁위기	-3714
▁유학	-3715
▁유효	-3716
▁의사	-3717
▁일년	-3718
▁입고	-3719
▁입지	-3720
▁있다	-3721
▁잡아	-3722
▁적게	-3723
▁전혀	-3724
▁정류	-3725
▁정의	-3726
▁제게	-3727
▁조건	-3728
▁종일	-3729
▁주식	-3730
▁줄까	-3731
▁줄어	-3732
▁즐겁	-3733
▁지울	-3734
▁지치	-3735
▁참지	-3736
▁책을	-3737
▁철벽	-3738
▁최근	-3739
▁축복	-3740
▁침대	-3741
▁코스	-3742
▁키가	-3743
▁택배	-3744
▁패턴	-3745
▁포근	-3746
▁풀렸	-3747
▁풀어	-3748
▁했나	-3749
▁호의	-3750
▁확신	-3751
▁회복	-3752
▁흔적	-3753
▁흘러	-3754
▁흥미	-3755
라우마	-3756
보아요	-3757
보여요	-3758
야하나	-3759
에서도	-3760
였으면	-3761
유증이	-3762
이예요	-3763
인데이	-3764
인인데	-3765
적이야	-3766
지네요	-3767
하다는	-3768
할거라	-3769
해야죠	-3770
했더니	-3771
했지만	-3772
▁가능한	-3773
▁가능해	-3774
▁가만히	-3775
▁같다고	-3776
▁것처럼	-3777
▁결정은	-3778
▁경험이	-3779
▁계획을	-3780
▁고마워	-3781
▁그녀와	-3782
▁그럴까	-3783
▁그럴만	-3784
▁그렇죠	-3785
▁그분이	-3786
▁기억을	-3787
▁끝나고	-3788
▁끝났네	-3789
▁남들이	-3790
▁내일도	-3791
▁노트북	-3792
▁느껴져	-3793
▁다음에	-3794
▁달달한	-3795
▁답장이	-3796
▁동료가	-3797
▁동호회	-3798
▁됐어요	-3799
▁되는게	-3800
▁될지도	-3801
▁뒤에서	-3802
▁떠나고	-3803
▁마음과	-3804
▁마침표	-3805
▁많으면	-3806
▁말라고	-3807
▁말하고	-3808
▁말해도	-3809
▁말해줘	-3810
▁맞는지	-3811
▁맞을까	-3812
▁멋져요	-3813
▁모든게	-3814
▁모른척	-3815
▁무기력	-3816
▁미련은	-3817
▁바라는	-3818
▁바라지	-3819
▁배우자	-3820
▁번호를	-3821
▁변하는	-3822
▁보는게	-3823
▁보여요	-3824
▁불공평	-3825
▁사는게	-3826
▁살아요	-3827
▁상담을	-3828
▁상대가	-3829
▁새출발	-3830
▁생각날	-3831
▁선물로	-3832
▁소리가	-3833
▁속상해	-3834
▁속에서	-3835
▁순간이	-3836
▁쉬어가	-3837
▁신경을	-3838
▁신경이	-3839
▁썸에서	-3840
▁아니고	-3841
▁아닐까	-3842
▁아름답	-3843
▁아빠가	-3844
▁아직은	-3845
▁아프지	-3846
▁아픔을	-3847
▁아픔의	-3848
▁앞두고	-3849
▁어렵네	-3850
▁없애는	-3851
▁여드름	-3852
▁여자는	-3853
▁여자와	-3854
▁여행가	-3855
▁연습이	-3856
▁영화보	-3857
▁오래된	-3858
▁우리가	-3859
▁우울해	-3860
▁운명이	-3861
▁이해해	-3862
▁인스타	-3863
▁일들이	-3864
▁일부터	-3865
▁일이죠	-3866
▁있을지	-3867
▁잊혀질	-3868
▁자세히	-3869
▁자체로	-3870
▁정도는	-3871
▁정리될	-3872
▁정말로	-3873
▁제주도	-3874
▁좋으시	-3875
▁중국어	-3876
▁증거를	-3877
▁지내는	-3878
▁지하철	-3879
▁차가워	-3880
▁처음에	-3881
▁초콜릿	-3882
▁출퇴근	-3883
▁친구도	-3884
▁키우고	-3885
▁태어났	-3886
▁피크닉	-3887
▁하네요	-3888
▁하려고	-3889
▁하루를	-3890
▁하지만	-3891
▁해야죠	-3892
▁해주고	-3893
▁했어요	-3894
▁확인해	-3895
▁환승은	-3896
▁힘내지	-3897
갈거예요	-3898
개월만에	-3899
이니까요	-3900
하니까요	-3901
하시네요	-3902
▁결혼적령	-3903
▁고백하고	-3904
▁그러게요	-3905
▁남자한테	-3906
▁노력하면	-3907
▁답답하네	-3908
▁당연하죠	-3909
▁될거예요	-3910
▁듯합니다	-3911
▁모르는게	-3912
▁무시하는	-3913
▁물어봐요	-3914
▁미친듯이	-3915
▁별로라고	-3916
▁봉사활동	-3917
▁비교하지	-3918
▁빠를수록	-3919
▁사람인데	-3920
▁사랑에는	-3921
▁사이에서	-3922
▁사회생활	-3923
▁상처받지	-3924
▁생각할까	-3925
▁생각해도	-3926
▁성공하길	-3927
▁시원하게	-3928
▁신혼여행	-3929
▁아니네요	-3930
▁안되겠지	-3931
▁안되는데	-3932
▁언제까지	-3933
▁엄마한테	-3934
▁여자들이	-3935
▁연락처를	-3936
▁연애하고	-3937
▁이별하고	-3938
▁이제라도	-3939
▁있겠네요	-3940
▁있었나요	-3941
▁잡으세요	-3942
▁전화하는	-3943
▁좋을까요	-3944
▁준비하고	-3945
▁지금보다	-3946
▁취미생활	-3947
▁친구라고	-3948
▁카페에서	-3949
▁트라우마	-3950
▁표현하는	-3951
▁필요했을	-3952
▁하나라도	-3953
▁하루에도	-3954
▁행복해질	-3955
▁헤아리지	-3956
▁헤어짐을	-3957
▁혼자만의	-3958
▁화장하는	-3959
▁후유증이	-3960
▁힘들지요	-3961
▁가능합니다	-3962
▁간접적이든	-3963
▁그랬나봐요	-3964
▁기분전환을	-3965
▁누구에게나	-3966
▁다음부터는	-3967
▁떠나보세요	-3968
▁만남이었길	-3969
▁말씀하세요	-3970
▁맞을거예요	-3971
▁받아들이기	-3972
▁밝혀보세요	-3973
▁버텨보세요	-3974
▁보여주세요	-3975
▁부담스러운	-3976
▁사람이라면	-3977
▁생각해봐요	-3978
▁시작하세요	-3979
▁않았나봐요	-3980
▁억지로라도	-3981
▁이야기해도	-3982
▁정해보세요	-3983
▁좋아했는데	-3984
▁주기적으로	-3985
▁직접적이든	-3986
▁참아보세요	-3987
▁축하합니다	-3988
▁풀어보세요	-3989
▁하지마세요	-3990
▁힘들어하지	-3991
▁기다려주세요	-3992
▁발렌타인데이	-3993
▁사람이니까요	-3994
▁위로봇입니다	-3995
▁필요하겠어요	-3996
▁결정이었을텐데	-3997
▁거기까지였나봐요	-3998
00	-3999
▁곰	-4000
▁곱	-4001
▁광	-4002
▁꾹	-4003
▁낚	-4004
▁낳	-4005
▁낼	-4006
▁닫	-4007
▁득	-4008
▁롱	-4009
▁묻	-4010
▁밖	-4011
▁벽	-4012
▁쉴	-4013
▁슈	-4014
▁씨	-4015
▁액	-4016
▁엉	-4017
▁옳	-4018
▁임	-4019
▁찜	-4020
▁찼	-4021
▁황	-4022
▁흑	-4023
거같	-4024
거지	-4025
건데	-4026
겠음	-4027
겨워	-4028
곰히	-4029
관계	-4030
관리	-4031
교통	-4032
근차	-4033
기업	-4034
끄러	-4035
끼리	-4036
나네	-4037
다른	-4038
대체	-4039
대회	-4040
도는	-4041
돌아	-4042
돼서	-4043
듯한	-4044
라서	-4045
로리	-4046
만나	-4047
매일	-4048
면증	-4049
바이	-4050
바퀴	-4051
벤트	-4052
상담	-4053
선물	-4054
세포	-4055
수가	-4056
수를	-4057
수증	-4058
심을	-4059
였던	-4060
와서	-4061
와요	-4062
이크	-4063
인상	-4064
작정	-4065
잖아	-4066
저리	-4067
절한	-4068
젯밤	-4069
졌네	-4070
조심	-4071
지런	-4072
지죠	-4073
질방	-4074
짐에	-4075
청소	-4076
카드	-4077
터디	-4078
트업	-4079
트콘	-4080
표현	-4081
하자	-4082
학기	-4083
한잔	-4084
해를	-4085
했길	-4086
행기	-4087
형이	-4088
화가	-4089
히려	-4090
▁ᄒᄒ	-4091
▁가늠	-4092
▁가득	-4093
▁가려	-4094
▁가을	-4095
▁갈때	-4096
▁감당	-4097
▁감히	-4098
▁갔어	-4099
▁강습	-4100
▁갖지	-4101
▁거둘	-4102
▁것들	-4103
▁고고	-4104
▁고기	-4105
▁고장	-4106
▁고치	-4107
▁공감	-4108
▁관련	-4109
▁귀를	-4110
▁금연	-4111
▁기프	-4112
▁깊게	-4113
▁깜빡	-4114
▁꾸며	-4115
▁끝날	-4116
▁나누	-4117
▁나빠	-4118
▁낭비	-4119
▁넘어	-4120
▁놀다	-4121
▁누굴	-4122
▁눈썹	-4123
▁느낀	-4124
▁늦어	-4125
▁단순	-4126
▁단호	-4127
▁대답	-4128
▁대우	-4129
▁대중	-4130
▁대체	-4131
▁도망	-4132
▁동감	-4133
▁득템	-4134
▁들리	-4135
▁들을	-4136
▁때려	-4137
▁떠났	-4138
▁로봇	-4139
▁막차	-4140
▁많네	-4141
▁많다	-4142
▁말아	-4143
▁말한	-4144
▁망가	-4145
▁맞지	-4146
▁맞춤	-4147
▁매번	-4148
▁먹지	-4149
▁며칠	-4150
▁몇일	-4151
▁모으	-4152
▁무릎	-4153
▁뭐하	-4154
▁바디	-4155
▁밤에	-4156
▁베풀	-4157
▁변해	-4158
▁보름	-4159
▁부부	-4160
▁분노	-4161
▁분들	-4162
▁불타	-4163
▁빠른	-4164
▁빼고	-4165
▁살면	-4166
▁삶의	-4167
▁서류	-4168
▁성덕	-4169
▁성적	-4170
▁성형	-4171
▁소액	-4172
▁소유	-4173
▁소주	-4174
▁속은	-4175
▁수염	-4176
▁수영	-4177
▁수학	-4178
▁쉬어	-4179
▁쉽진	-4180
▁슈퍼	-4181
▁스테	-4182
▁스팸	-4183
▁슬픔	-4184
▁실례	-4185
▁싸움	-4186
▁쌩얼	-4187
▁썸만	-4188
▁썸일	-4189
▁썼어	-4190
▁씻고	-4191
▁아님	-4192
▁아련	-4193
▁아물	-4194
▁아주	-4195
▁안가	-4196
▁안에	-4197
▁알뜰	-4198
▁애석	-4199
▁애틋	-4200
▁어둠	-4201
▁어떠	-4202
▁연휴	-4203
▁예전	-4204
▁오락	-4205
▁오토	-4206
▁온다	-4207
▁올까	-4208
▁옷이	-4209
▁왕따	-4210
▁요구	-4211
▁요금	-4212
▁욕심	-4213
▁우린	-4214
▁운을	-4215
▁웃어	-4216
▁육아	-4217
▁음식	-4218
▁의견	-4219
▁이것	-4220
▁이뻐	-4221
▁이쁜	-4222
▁인공	-4223
▁일단	-4224
▁일에	-4225
▁잃어	-4226
▁입이	-4227
▁자는	-4228
▁자면	-4229
▁자취	-4230
▁잠재	-4231
▁잡는	-4232
▁전세	-4233
▁전역	-4234
▁점은	-4235
▁점이	-4236
▁조용	-4237
▁조차	-4238
▁조카	-4239
▁좋게	-4240
▁좋고	-4241
▁주름	-4242
▁중고	-4243
▁증오	-4244
▁지냈	-4245
▁지키	-4246
▁진지	-4247
▁짧지	-4248
▁찌질	-4249
▁차갑	-4250
▁차례	-4251
▁참아	-4252
▁창업	-4253
▁책임	-4254
▁초기	-4255
▁추석	-4256
▁추운	-4257
▁치고	-4258
▁치맥	-4259
▁치열	-4260
▁치유	-4261
▁키워	-4262
▁타기	-4263
▁타던	-4264
▁탈출	-4265
▁탈퇴	-4266
▁티가	-4267
▁티를	-4268
▁평가	-4269
▁평온	-4270
▁표시	-4271
▁푸는	-4272
▁필름	-4273
▁하든	-4274
▁학점	-4275
▁한강	-4276
▁합격	-4277
▁해낼	-4278
▁했다	-4279
▁허리	-4280
▁형편	-4281
▁혼란	-4282
▁혼술	-4283
▁화내	-4284
▁희생	-4285
▁힘껏	-4286
것같아	-4287
겠는데	-4288
교통을	-4289
근차근	-4290
년만에	-4291
년이란	-4292
되는데	-4293
들에게	-4294
방법을	-4295
봐야지	-4296
생활이	-4297
셨군요	-4298
스러울	-4299
스크림	-4300
스피싱	-4301
시간이	-4302
심으로	-4303
었나봐	-4304
영수증	-4305
우니까	-4306
으려면	-4307
이겠죠	-4308
인건가	-4309
적이고	-4310
적이죠	-4311
졌는데	-4312
지말고	-4313
하더니	-4314
하려는	-4315
할거야	-4316
할까봐	-4317
해주면	-4318
했나봐	-4319
▁가사가	-4320
▁가짐에	-4321
▁각자의	-4322
▁감정은	-4323
▁갔는데	-4324
▁거울을	-4325
▁걱정은	-4326
▁건가요	-4327
▁건강이	-4328
▁걸까요	-4329
▁것들이	-4330
▁견디고	-4331
▁결정할	-4332
▁경우가	-4333
▁경우도	-4334
▁계절이	-4335
▁고맙다	-4336
▁곰곰히	-4337
▁괴로워	-4338
▁괴롭게	-4339
▁군침이	-4340
▁궁금할	-4341
▁권태기	-4342
▁귀엽게	-4343
▁그러는	-4344
▁그분의	-4345
▁기간이	-4346
▁기대가	-4347
▁기분은	-4348
▁길에서	-4349
▁나가기	-4350
▁낫겠지	-4351
▁너무나	-4352
▁넘었네	-4353
▁노래를	-4354
▁놀아줘	-4355
▁누구도	-4356
▁능력을	-4357
▁당연히	-4358
▁대화가	-4359
▁더러워	-4360
▁도네요	-4361
▁도대체	-4362
▁도와주	-4363
▁도전해	-4364
▁되겠지	-4365
▁두근거	-4366
▁두번째	-4367
▁드시고	-4368
▁듣는데	-4369
▁떠보는	-4370
▁뜻대로	-4371
▁마주쳐	-4372
▁마주치	-4373
▁만나길	-4374
▁만나러	-4375
▁만남과	-4376
▁만남이	-4377
▁말투가	-4378
▁맛있을	-4379
▁망했어	-4380
▁머리는	-4381
▁멋지게	-4382
▁모아서	-4383
▁못하면	-4384
▁무거워	-4385
▁무엇을	-4386
▁무작정	-4387
▁문제는	-4388
▁문제로	-4389
▁미래에	-4390
▁바쁘면	-4391
▁방법을	-4392
▁배우면	-4393
▁버려야	-4394
▁변하지	-4395
▁별로야	-4396
▁보면서	-4397
▁보아요	-4398
▁보이는	-4399
▁부딪혔	-4400
▁부지런	-4401
▁불면증	-4402
▁비행기	-4403
▁사귀면	-4404
▁사람만	-4405
▁살면서	-4406
▁상처는	-4407
▁새학기	-4408
▁생리통	-4409
▁서로가	-4410
▁선배가	-4411
▁성공을	-4412
▁소식이	-4413
▁소심해	-4414
▁술먹고	-4415
▁쉬어야	-4416
▁스터디	-4417
▁시간에	-4418
▁시간표	-4419
▁실수할	-4420
▁싫다고	-4421
▁심경의	-4422
▁싸우면	-4423
▁아닌거	-4424
▁아프고	-4425
▁아픔이	-4426
▁안경테	-4427
▁안녕히	-4428
▁않지만	-4429
▁알았어	-4430
▁약속을	-4431
▁양해를	-4432
▁얘기를	-4433
▁어디로	-4434
▁어젯밤	-4435
▁언제든	-4436
▁얼굴이	-4437
▁없겠지	-4438
▁없는게	-4439
▁없지만	-4440
▁영원한	-4441
▁오히려	-4442
▁월급이	-4443
▁월요일	-4444
▁의미가	-4445
▁의미를	-4446
▁의외로	-4447
▁의욕이	-4448
▁이벤트	-4449
▁이해할	-4450
▁인상이	-4451
▁일어날	-4452
▁있는거	-4453
▁있어야	-4454
▁자괴감	-4455
▁자기도	-4456
▁자신과	-4457
▁자존감	-4458
▁잘해야	-4459
▁재회를	-4460
▁접어두	-4461
▁정규직	-4462
▁좋아질	-4463
▁준비중	-4464
▁중요할	-4465
▁지겨워	-4466
▁지나간	-4467
▁진심이	-4468
▁집중이	-4469
▁집착해	-4470
▁짜장면	-4471
▁찜질방	-4472
▁차이가	-4473
▁찾아오	-4474
▁첫인상	-4475
▁최근에	-4476
▁최대한	-4477
▁최선을	-4478
▁추억은	-4479
▁치과에	-4480
▁커피향	-4481
▁타다가	-4482
▁태어나	-4483
▁택시비	-4484
▁터놓고	-4485
▁퇴근길	-4486
▁특별한	-4487
▁파먹기	-4488
▁피부가	-4489
▁하거나	-4490
▁하루가	-4491
▁하루에	-4492
▁학원을	-4493
▁행동이	-4494
▁화이트	-4495
▁회사에	-4496
▁휴가가	-4497
▁휴식을	-4498
▁흥미를	-4499
▁힘든데	-4500
▁힘들고	-4501
되겠네요	-4502
버리세요	-4503
야하는데	-4504
었겠네요	-4505
었습니다	-4506
왔습니다	-4507
의하세요	-4508
▁가능할까	-4509
▁고민하게	-4510
▁고쳐쓰는	-4511
▁공부하기	-4512
▁공허함이	-4513
▁괜찮다면	-4514
▁괜찮지만	-4515
▁그럴지도	-4516
▁그만하고	-4517
▁기프트콘	-4518
▁깨끗하게	-4519
▁끝났으면	-4520
▁나을지도	-4521
▁나한테만	-4522
▁남사친이	-4523
▁노력하고	-4524
▁다가가는	-4525
▁다양하게	-4526
▁당신에게	-4527
▁돌아가고	-4528
▁드라이브	-4529
▁만들려고	-4530
▁말해봐요	-4531
▁맛있어요	-4532
▁매일매일	-4533
▁먹었는데	-4534
▁물어보고	-4535
▁받아보는	-4536
▁부드럽게	-4537
▁비밀번호	-4538
▁사귀어도	-4539
▁사랑받고	-4540
▁사랑하기	-4541
▁사보세요	-4542
▁사이인데	-4543
▁상대방도	-4544
▁생각나고	-4545
▁선생님이	-4546
▁세상에는	-4547
▁센스있는	-4548
▁셀프웨딩	-4549
▁소개시켜	-4550
▁스타트업	-4551
▁시작해도	-4552
▁신경쓰는	-4553
▁실수하지	-4554
▁싫어하지	-4555
▁싸우면서	-4556
▁아니라는	-4557
▁않겠어요	-4558
▁애정표현	-4559
▁얼마든지	-4560
▁연락해서	-4561
▁오락가락	-4562
▁오토바이	-4563
▁운동으로	-4564
▁응원해요	-4565
▁의미있는	-4566
▁이기적인	-4567
▁이야기해	-4568
▁익숙해질	-4569
▁인정받고	-4570
▁잊는다는	-4571
▁전남친이	-4572
▁좋습니다	-4573
▁좋아하지	-4574
▁지나갔길	-4575
▁진정으로	-4576
▁집안일을	-4577
▁집착하는	-4578
▁차근차근	-4579
▁차리세요	-4580
▁차분하게	-4581
▁처음부터	-4582
▁처음에는	-4583
▁첫사랑이	-4584
▁체육대회	-4585
▁추억으로	-4586
▁추천해줘	-4587
▁포기하는	-4588
▁하루종일	-4589
▁학교에서	-4590
▁행복하길	-4591
▁행복할까	-4592
▁혼자서도	-4593
▁회사에는	-4594
▁힘들지도	-4595
드려보세요	-4596
했나봅니다	-4597
▁꾸며보세요	-4598
▁달라지는게	-4599
▁대중교통을	-4600
▁되었나봐요	-4601
▁들여보세요	-4602
▁마음이라도	-4603
▁많은가봐요	-4604
▁못했나봐요	-4605
▁벗어나세요	-4606
▁보이스피싱	-4607
▁붙여보세요	-4608
▁빌려보세요	-4609
▁사랑한다는	-4610
▁사랑할수록	-4611
▁상관없어요	-4612
▁선택일거라	-4613
▁스트레칭을	-4614
▁습관이네요	-4615
▁신고하세요	-4616
▁심하겠네요	-4617
▁심한가봐요	-4618
▁아니랍니다	-4619
▁아닌가봐요	-4620
▁아이스크림	-4621
▁안녕하세요	-4622
▁안타깝네요	-4623
▁않을거예요	-4624
▁올려달라고	-4625
▁웃어보세요	-4626
▁재미있어요	-4627
▁정류장에서	-4628
▁좋아한다고	-4629
▁준비하세요	-4630
▁줄여보세요	-4631
▁집중하세요	-4632
▁청해보세요	-4633
▁추천합니다	-4634
▁충전하세요	-4635
▁헤어지는게	-4636
▁헤어지세요	-4637
▁현금영수증	-4638
▁화이트데이	-4639
▁힘들거예요	-4640
▁걱정되겠네요	-4641
▁남자친구한테	-4642
▁시간이겠네요	-4643
▁연습해보세요	-4644
▁예민한가봐요	-4645
▁이별했습니다	-4646
▁이용해주세요	-4647
▁정리해보세요	-4648
▁좋아할거예요	-4649
▁피곤한가봐요	-4650
▁필요한가봐요	-4651
▁힘드신가봐요	-4652
▁두근거리겠어요	-4653
▁부지런하시네요	-4654
▁심호흡해보세요	-4655
ᄏᄏ	-4656
▁긁	-4657
▁끼	-4658
▁뉴	-4659
▁덕	-4660
▁떡	-4661
▁똥	-4662
▁랜	-4663
▁밑	-4664
▁밟	-4665
▁북	-4666
▁빚	-4667
▁빵	-4668
▁삐	-4669
▁승	-4670
▁씌	-4671
▁엮	-4672
▁옥	-4673
▁왠	-4674
▁쪽	-4675
▁쫌	-4676
▁층	-4677
▁켜	-4678
▁쿨	-4679
▁탓	-4680
▁팀	-4681
▁퍼	-4682
▁헌	-4683
▁훈	-4684
갔네	-4685
걸요	-4686
게임	-4687
고가	-4688
김에	-4689
나가	-4690
난거	-4691
난히	-4692
냐구	-4693
노래	-4694
능에	-4695
다리	-4696
달콩	-4697
담화	-4698
동산	-4699
되기	-4700
두절	-4701
드가	-4702
드시	-4703
레스	-4704
력은	-4705
련만	-4706
롭게	-4707
르네	-4708
모가	-4709
무게	-4710
문이	-4711
버려	-4712
버리	-4713
버시	-4714
봤어	-4715
분간	-4716
사는	-4717
사에	-4718
살이	-4719
서야	-4720
셨나	-4721
수저	-4722
숭숭	-4723
식에	-4724
심한	-4725
쏟아	-4726
았네	-4727
았다	-4728
연제	-4729
였나	-4730
오를	-4731
와의	-4732
왔네	-4733
우는	-4734
우니	-4735
웠을	-4736
으려	-4737
으며	-4738
은거	-4739
을때	-4740
의금	-4741
있나	-4742
있음	-4743
있지	-4744
저분	-4745
정리	-4746
조절	-4747
조차	-4748
주째	-4749
줘야	-4750
증을	-4751
진다	-4752
질이	-4753
참고	-4754
카락	-4755
트가	-4756
플라	-4757
하실	-4758
한번	-4759
히네	-4760
힌다	-4761
▁20	-4762
▁가라	-4763
▁가볍	-4764
▁가스	-4765
▁간식	-4766
▁감수	-4767
▁감싸	-4768
▁갚아	-4769
▁개념	-4770
▁거는	-4771
▁걸려	-4772
▁걸린	-4773
▁것만	-4774
▁격려	-4775
▁경제	-4776
▁곳을	-4777
▁괜한	-4778
▁괴로	-4779
▁구분	-4780
▁구속	-4781
▁그가	-4782
▁기댈	-4783
▁길게	-4784
▁길은	-4785
▁김치	-4786
▁꺼내	-4787
▁꼼꼼	-4788
▁꿈같	-4789
▁끄는	-4790
▁끓여	-4791
▁끝낼	-4792
▁끝일	-4793
▁나날	-4794
▁나약	-4795
▁낚시	-4796
▁남길	-4797
▁낭만	-4798
▁내게	-4799
▁내기	-4800
▁내내	-4801
▁높아	-4802
▁눈은	-4803
▁능력	-4804
▁늦는	-4805
▁늦잠	-4806
▁다짐	-4807
▁다툼	-4808
▁단톡	-4809
▁담긴	-4810
▁답은	-4811
▁더욱	-4812
▁돈은	-4813
▁되기	-4814
▁듣기	-4815
▁들까	-4816
▁들려	-4817
▁들면	-4818
▁등산	-4819
▁등을	-4820
▁떨쳐	-4821
▁랜선	-4822
▁리폼	-4823
▁만에	-4824
▁맘을	-4825
▁맞나	-4826
▁먹으	-4827
▁먼지	-4828
▁면허	-4829
▁명품	-4830
▁모를	-4831
▁모쏠	-4832
▁모임	-4833
▁목이	-4834
▁몸에	-4835
▁무관	-4836
▁무의	-4837
▁무한	-4838
▁물건	-4839
▁뭐임	-4840
▁미용	-4841
▁미칠	-4842
▁미화	-4843
▁바늘	-4844
▁바지	-4845
▁반갑	-4846
▁받기	-4847
▁방문	-4848
▁배울	-4849
▁버리	-4850
▁번씩	-4851
▁벌고	-4852
▁벽에	-4853
▁변한	-4854
▁보단	-4855
▁보며	-4856
▁복전	-4857
▁봄은	-4858
▁부디	-4859
▁부여	-4860
▁불금	-4861
▁비하	-4862
▁빠졌	-4863
▁빨래	-4864
▁뽑기	-4865
▁사냐	-4866
▁사탕	-4867
▁살찐	-4868
▁상메	-4869
▁서툰	-4870
▁설렜	-4871
▁설명	-4872
▁세월	-4873
▁손에	-4874
▁손톱	-4875
▁손해	-4876
▁수상	-4877
▁수업	-4878
▁수준	-4879
▁술은	-4880
▁숨막	-4881
▁슬쩍	-4882
▁시골	-4883
▁시도	-4884
▁식단	-4885
▁신발	-4886
▁심어	-4887
▁썸인	-4888
▁쓸쓸	-4889
▁씁쓸	-4890
▁아마	-4891
▁아팠	-4892
▁안주	-4893
▁알지	-4894
▁알콩	-4895
▁애기	-4896
▁양말	-4897
▁어깨	-4898
▁어른	-4899
▁어리	-4900
▁염탐	-4901
▁예감	-4902
▁올랐	-4903
▁옷을	-4904
▁와닿	-4905
▁왜그	-4906
▁요리	-4907
▁웃겨	-4908
▁유행	-4909
▁은행	-4910
▁이모	-4911
▁이틀	-4912
▁일반	-4913
▁읽씹	-4914
▁입에	-4915
▁있음	-4916
▁자도	-4917
▁작아	-4918
▁잔인	-4919
▁잘살	-4920
▁잘자	-4921
▁쟁취	-4922
▁적어	-4923
▁적이	-4924
▁전기	-4925
▁전해	-4926
▁제안	-4927
▁좋으	-4928
▁주차	-4929
▁주택	-4930
▁지낼	-4931
▁지루	-4932
▁지옥	-4933
▁진행	-4934
▁질질	-4935
▁짐을	-4936
▁집앞	-4937
▁짧게	-4938
▁찍고	-4939
▁착잡	-4940
▁참석	-4941
▁참을	-4942
▁처럼	-4943
▁첫눈	-4944
▁추스	-4945
▁층간	-4946
▁치매	-4947
▁치워	-4948
▁컴퓨	-4949
▁코가	-4950
▁타다	-4951
▁털어	-4952
▁특징	-4953
▁틀린	-4954
▁티내	-4955
▁편의	-4956
▁포장	-4957
▁표정	-4958
▁피자	-4959
▁한가	-4960
▁한계	-4961
▁한국	-4962
▁한창	-4963
▁한켠	-4964
▁할줄	-4965
▁해줄	-4966
▁호칭	-4967
▁흑역	-4968
거겠죠	-4969
겠다고	-4970
끄러워	-4971
납니다	-4972
냈어요	-4973
년연애	-4974
느냐에	-4975
데이트	-4976
라는게	-4977
릅니다	-4978
받았어	-4979
보다는	-4980
생인데	-4981
셔야죠	-4982
식하는	-4983
신가요	-4984
았으면	-4985
었나요	-4986
유연제	-4987
이라서	-4988
인걸까	-4989
인데요	-4990
정적인	-4991
지세요	-4992
집니다	-4993
터리가	-4994
테리어	-4995
하겠지	-4996
한건가	-4997
해졌어	-4998
해주지	-4999
했네요	-5000
▁가까운	-5001
▁강렬한	-5002
▁거라고	-5003
▁거절의	-5004
▁걱정할	-5005
▁것들을	-5006
▁게임을	-5007
▁고마운	-5008
▁고백은	-5009
▁고치고	-5010
▁공부할	-5011
▁그러게	-5012
▁그리울	-5013
▁그리움	-5014
▁긁었어	-5015
▁금수저	-5016
▁기다렸	-5017
▁기다림	-5018
▁기대를	-5019
▁기본이	-5020
▁기억의	-5021
▁끝내고	-5022
▁끝인가	-5023
▁나가야	-5024
▁나갔어	-5025
▁남자도	-5026
▁너한테	-5027
▁누구랑	-5028
▁눈에서	-5029
▁다가오	-5030
▁다르죠	-5031
▁단둘이	-5032
▁달려있	-5033
▁당분간	-5034
▁당연한	-5035
▁대화로	-5036
▁되는거	-5037
▁뒤숭숭	-5038
▁뒤통수	-5039
▁뒷담화	-5040
▁드리고	-5041
▁드시면	-5042
▁들어도	-5043
▁들어서	-5044
▁들어올	-5045
▁들어줄	-5046
▁들으면	-5047
▁때문일	-5048
▁때예요	-5049
▁똑같아	-5050
▁마셔도	-5051
▁마실까	-5052
▁마음만	-5053
▁만나요	-5054
▁만나자	-5055
▁만남에	-5056
▁말했어	-5057
▁망했다	-5058
▁맞는거	-5059
▁맞아요	-5060
▁맞춤법	-5061
▁매력이	-5062
▁먹었어	-5063
▁먹자고	-5064
▁먼지가	-5065
▁멀어진	-5066
▁목소리	-5067
▁몸무게	-5068
▁못참고	-5069
▁못해서	-5070
▁못했던	-5071
▁물리적	-5072
▁뭐하는	-5073
▁미끄러	-5074
▁미련도	-5075
▁믿음을	-5076
▁바꿀까	-5077
▁바뀌게	-5078
▁바르고	-5079
▁바빠도	-5080
▁바빠서	-5081
▁밖에서	-5082
▁반응이	-5083
▁받아야	-5084
▁배고프	-5085
▁버텨요	-5086
▁베터리	-5087
▁보냈어	-5088
▁보자고	-5089
▁볼게요	-5090
▁봤는데	-5091
▁부탁드	-5092
▁빌어요	-5093
▁빠지는	-5094
▁뻔했어	-5095
▁사겨도	-5096
▁사귀던	-5097
▁사라질	-5098
▁살아가	-5099
▁상사가	-5100
▁상처도	-5101
▁서운해	-5102
▁서툴러	-5103
▁선에서	-5104
▁선택할	-5105
▁선톡을	-5106
▁세상이	-5107
▁소원을	-5108
▁속도를	-5109
▁슬프게	-5110
▁습관이	-5111
▁시계는	-5112
▁신경써	-5113
▁싫어도	-5114
▁심장이	-5115
▁싶다는	-5116
▁싸우는	-5117
▁아무말	-5118
▁아픔은	-5119
▁안하지	-5120
▁않는게	-5121
▁어디든	-5122
▁어려울	-5123
▁어렵죠	-5124
▁어렸을	-5125
▁어리게	-5126
▁어제와	-5127
▁어쩔수	-5128
▁없는거	-5129
▁여자도	-5130
▁여행은	-5131
▁연락오	-5132
▁연락할	-5133
▁연애의	-5134
▁연인은	-5135
▁옆에서	-5136
▁예민한	-5137
▁오빠가	-5138
▁요즘은	-5139
▁우리집	-5140
▁유난히	-5141
▁유부남	-5142
▁이기적	-5143
▁이름이	-5144
▁인연은	-5145
▁입어도	-5146
▁있었을	-5147
▁잘못을	-5148
▁잘못이	-5149
▁재밌는	-5150
▁재밌다	-5151
▁재밌어	-5152
▁재회는	-5153
▁정도로	-5154
▁존재를	-5155
▁좋을지	-5156
▁좋지요	-5157
▁주면서	-5158
▁주제를	-5159
▁줄어들	-5160
▁지나가	-5161
▁지나면	-5162
▁지내길	-5163
▁지르고	-5164
▁지우고	-5165
▁지저분	-5166
▁짜증날	-5167
▁차갑게	-5168
▁차별해	-5169
▁차이는	-5170
▁찾아온	-5171
▁추억에	-5172
▁축의금	-5173
▁친구네	-5174
▁친구는	-5175
▁친구와	-5176
▁친해지	-5177
▁친해질	-5178
▁카톡을	-5179
▁카톡이	-5180
▁편하고	-5181
▁평소에	-5182
▁프라이	-5183
▁프로필	-5184
▁피해를	-5185
▁하기도	-5186
▁하는지	-5187
▁하다가	-5188
▁하우스	-5189
▁한다는	-5190
▁한숨만	-5191
▁함께한	-5192
▁함께할	-5193
▁함부로	-5194
▁해보고	-5195
▁해야돼	-5196
▁해야할	-5197
▁행운을	-5198
▁현실과	-5199
▁혼자인	-5200
▁화장품	-5201
▁후회를	-5202
▁휴가를	-5203
▁힘든거	-5204
러보세요	-5205
뿐이에요	-5206
셨겠어요	-5207
시겠네요	-5208
지겠네요	-5209
테니까요	-5210
해야겠다	-5211
해야하는	-5212
해지세요	-5213
▁가능하면	-5214
▁가야겠죠	-5215
▁가치관이	-5216
▁거르세요	-5217
▁것입니다	-5218
▁결정이었	-5219
▁관리하는	-5220
▁권태기가	-5221
▁그대로의	-5222
▁기대하지	-5223
▁기억에서	-5224
▁나가볼까	-5225
▁나아졌길	-5226
▁낭비하지	-5227
▁놀이동산	-5228
▁달라진게	-5229
▁대화하는	-5230
▁도전하는	-5231
▁두려움을	-5232
▁두셨네요	-5233
▁들어왔어	-5234
▁떠오르는	-5235
▁마음정리	-5236
▁마주치는	-5237
▁만나는데	-5238
▁만들어서	-5239
▁맞추세요	-5240
▁머리카락	-5241
▁먹으면서	-5242
▁모르겠네	-5243
▁못하는게	-5244
▁물어보면	-5245
▁미워하지	-5246
▁미치겠네	-5247
▁미치겠어	-5248
▁믿으세요	-5249
▁받아들일	-5250
▁보고싶네	-5251
▁보이네요	-5252
▁비난하지	-5253
▁사랑해요	-5254
▁살다보면	-5255
▁상대방에	-5256
▁생각으로	-5257
▁생각해서	-5258
▁생겼네요	-5259
▁생일이네	-5260
▁서류에서	-5261
▁선택이길	-5262
▁성공하고	-5263
▁수학여행	-5264
▁시작이죠	-5265
▁시작하기	-5266
▁신경쓰여	-5267
▁신중하게	-5268
▁심호흡을	-5269
▁쓰레기야	-5270
▁아는데도	-5271
▁아니었을	-5272
▁아닌가요	-5273
▁알콩달콩	-5274
▁어떻게든	-5275
▁어떻게해	-5276
▁언젠가는	-5277
▁없겠지요	-5278
▁여사친이	-5279
▁연락두절	-5280
▁연애하는	-5281
▁연애하면	-5282
▁연인으로	-5283
▁오늘부터	-5284
▁왔나봐요	-5285
▁운명적인	-5286
▁이별이란	-5287
▁이별준비	-5288
▁이상형은	-5289
▁이상형이	-5290
▁이어나가	-5291
▁인생이죠	-5292
▁인정하고	-5293
▁일어나는	-5294
▁일어나서	-5295
▁있었는데	-5296
▁있으니까	-5297
▁있을게요	-5298
▁잊으려고	-5299
▁잊혀지지	-5300
▁자신으로	-5301
▁자유로워	-5302
▁자존감을	-5303
▁잘하는게	-5304
▁잘해주는	-5305
▁재미없어	-5306
▁재미있게	-5307
▁적응해야	-5308
▁정리하고	-5309
▁정확하게	-5310
▁좋았으면	-5311
▁좋으련만	-5312
▁주변에서	-5313
▁주식으로	-5314
▁중요한데	-5315
▁즐기면서	-5316
▁짝남에게	-5317
▁짝사랑을	-5318
▁층간소음	-5319
▁카톡으로	-5320
▁콩깍지가	-5321
▁퇴근하고	-5322
▁편하겠죠	-5323
▁필요한게	-5324
▁한달하고	-5325
▁해외여행	-5326
▁헤어지기	-5327
▁헤어지는	-5328
▁헤어짐이	-5329
▁후폭풍은	-5330
▁후회하기	-5331
▁후회해도	-5332
▁힘들었죠	-5333
담해보세요	-5334
었으니까요	-5335
하신가봐요	-5336
▁가능하겠죠	-5337
▁걱정된다고	-5338
▁걸리겠지만	-5339
▁결혼하는데	-5340
▁과정이에요	-5341
▁구해보세요	-5342
▁기원합니다	-5343
▁남았나봐요	-5344
▁남자애한테	-5345
▁남자친구를	-5346
▁대해보세요	-5347
▁두려워하지	-5348
▁들어주세요	-5349
▁맞춰보세요	-5350
▁맡겨보세요	-5351
▁먹어야겠다	-5352
▁미세먼지가	-5353
▁바꿔보세요	-5354
▁사과하세요	-5355
▁삭제하세요	-5356
▁상대방에게	-5357
▁상황이네요	-5358
▁섬유유연제	-5359
▁순간이네요	-5360
▁순간이었을	-5361
▁아름다워요	-5362
▁애매하네요	-5363
▁없을거예요	-5364
▁여자친구를	-5365
▁연락해볼까	-5366
▁연락했는데	-5367
▁연애하는데	-5368
▁외국인인데	-5369
▁이겨내세요	-5370
▁잃어버렸어	-5371
▁잊혀지기도	-5372
▁잘해주세요	-5373
▁좋아한다는	-5374
▁좋아했으면	-5375
▁좋을텐데요	-5376
▁큰일이네요	-5377
▁프라이버시	-5378
▁하고싶었던	-5379
▁힘든가봐요	-5380
이었나봅니다	-5381
▁남자친구에게	-5382
▁당황했겠어요	-5383
▁마음인가봐요	-5384
▁마주쳐보세요	-5385
▁미치겠습니다	-5386
▁어필해보세요	-5387
▁인정해주세요	-5388
▁있으신가봐요	-5389
▁전화해보세요	-5390
▁좋아해줬으면	-5391
▁필요하다면요	-5392
▁부담스러워하지	-5393
as	-5394
▁객	-5395
▁갠	-5396
▁겪	-5397
▁국	-5398
▁굳	-5399
▁굴	-5400
▁꼰	-5401
▁꽉	-5402
▁둔	-5403
▁뒹	-5404
▁뚫	-5405
▁라	-5406
▁렌	-5407
▁맴	-5408
▁맺	-5409
▁멘	-5410
▁몫	-5411
▁민	-5412
▁밉	-5413
▁뱃	-5414
▁벅	-5415
▁뻑	-5416
▁샌	-5417
▁씹	-5418
▁엇	-5419
▁엠	-5420
▁웹	-5421
▁윗	-5422
▁좌	-5423
▁쫄	-5424
▁찢	-5425
▁컸	-5426
▁콕	-5427
▁킁	-5428
▁탁	-5429
▁팍	-5430
▁품	-5431
▁핫	-5432
▁햇	-5433
▁험	-5434
▁훔	-5435
가가	-5436
가기	-5437
가능	-5438
가의	-5439
감당	-5440
강에	-5441
같애	-5442
걸음	-5443
게되	-5444
겠대	-5445
고있	-5446
공원	-5447
구경	-5448
구를	-5449
그만	-5450
극히	-5451
기에	-5452
기지	-5453
긴다	-5454
길만	-5455
꺼야	-5456
꼬박	-5457
났네	-5458
네여	-5459
달이	-5460
대는	-5461
독한	-5462
드네	-5463
드위	-5464
듬어	-5465
라네	-5466
라니	-5467
랬다	-5468
런지	-5469
렀어	-5470
력서	-5471
력에	-5472
로그	-5473
르기	-5474
르지	-5475
름이	-5476
리죠	-5477
리필	-5478
린라	-5479
림을	-5480
마요	-5481
마자	-5482
만해	-5483
맛도	-5484
맛이	-5485
맥이	-5486
명한	-5487
문을	-5488
물을	-5489
밖은	-5490
받는	-5491
받을	-5492
발을	-5493
버린	-5494
보네	-5495
부의	-5496
뻑해	-5497
생각	-5498
서와	-5499
설여	-5500
소리	-5501
속에	-5502
수업	-5503
스트	-5504
시피	-5505
신발	-5506
쎄요	-5507
아리	-5508
아빠	-5509
안녕	-5510
야해	-5511
양말	-5512
양제	-5513
없네	-5514
에만	-5515
역이	-5516
였네	-5517
영상	-5518
오래	-5519
온다	-5520
올라	-5521
올려	-5522
왔다	-5523
우고	-5524
우지	-5525
운데	-5526
울렛	-5527
은것	-5528
이너	-5529
인줄	-5530
정녀	-5531
져서	-5532
조건	-5533
주일	-5534
지못	-5535
지부	-5536
지우	-5537
질뻔	-5538
질제	-5539
쪄도	-5540
찰텐	-5541
처리	-5542
총회	-5543
촬영	-5544
콜록	-5545
터넷	-5546
테니	-5547
트남	-5548
트롤	-5549
티콘	-5550
프터	-5551
하며	-5552
하진	-5553
학금	-5554
한건	-5555
함에	-5556
해가	-5557
했나	-5558
향을	-5559
▁12	-5560
▁AS	-5561
▁as	-5562
▁가게	-5563
▁간대	-5564
▁간직	-5565
▁감동	-5566
▁감출	-5567
▁강요	-5568
▁강제	-5569
▁갖게	-5570
▁같다	-5571
▁같음	-5572
▁개시	-5573
▁객관	-5574
▁갠톡	-5575
▁걔는	-5576
▁걷고	-5577
▁걷길	-5578
▁골프	-5579
▁공유	-5580
▁과연	-5581
▁구두	-5582
▁구별	-5583
▁구워	-5584
▁군인	-5585
▁귀로	-5586
▁그걸	-5587
▁그때	-5588
▁그땐	-5589
▁글자	-5590
▁길면	-5591
▁길지	-5592
▁깎아	-5593
▁꼬박	-5594
▁꼰대	-5595
▁꾹꾹	-5596
▁끈을	-5597
▁끝냈	-5598
▁나나	-5599
▁나니	-5600
▁나야	-5601
▁남과	-5602
▁남들	-5603
▁낮잠	-5604
▁낳을	-5605
▁내면	-5606
▁내서	-5607
▁냉면	-5608
▁너가	-5609
▁너의	-5610
▁넣을	-5611
▁노려	-5612
▁놀까	-5613
▁농구	-5614
▁농담	-5615
▁놔둬	-5616
▁누락	-5617
▁눈높	-5618
▁늙어	-5619
▁다칠	-5620
▁단체	-5621
▁닮은	-5622
▁당첨	-5623
▁당한	-5624
▁대수	-5625
▁대충	-5626
▁대피	-5627
▁데가	-5628
▁독이	-5629
▁돌려	-5630
▁돌면	-5631
▁되짚	-5632
▁두푼	-5633
▁뒤에	-5634
▁뒹굴	-5635
▁드릴	-5636
▁땀을	-5637
▁때매	-5638
▁때요	-5639
▁때죠	-5640
▁떠날	-5641
▁또한	-5642
▁똥차	-5643
▁뜨겁	-5644
▁띄는	-5645
▁롱디	-5646
▁리드	-5647
▁마른	-5648
▁마중	-5649
▁막막	-5650
▁만화	-5651
▁말걸	-5652
▁망함	-5653
▁맞아	-5654
▁먹먹	-5655
▁먹은	-5656
▁멈춰	-5657
▁멋져	-5658
▁목적	-5659
▁몰려	-5660
▁못자	-5661
▁무모	-5662
▁무언	-5663
▁문화	-5664
▁물이	-5665
▁뭐로	-5666
▁뭐지	-5667
▁뭐해	-5668
▁뭘로	-5669
▁미루	-5670
▁미팅	-5671
▁믿고	-5672
▁믿어	-5673
▁믿지	-5674
▁밀려	-5675
▁바꿨	-5676
▁바쁠	-5677
▁반에	-5678
▁반장	-5679
▁반한	-5680
▁발견	-5681
▁밥을	-5682
▁방금	-5683
▁배달	-5684
▁배신	-5685
▁백업	-5686
▁버는	-5687
▁버릇	-5688
▁베프	-5689
▁변신	-5690
▁병신	-5691
▁보란	-5692
▁보신	-5693
▁봐주	-5694
▁봤네	-5695
▁부질	-5696
▁불만	-5697
▁불효	-5698
▁브랜	-5699
▁블록	-5700
▁비워	-5701
▁빌어	-5702
▁뿌린	-5703
▁사도	-5704
▁사먹	-5705
▁사수	-5706
▁사전	-5707
▁사줘	-5708
▁사춘	-5709
▁사표	-5710
▁상종	-5711
▁생생	-5712
▁서점	-5713
▁선풍	-5714
▁설득	-5715
▁세어	-5716
▁소름	-5717
▁속박	-5718
▁손편	-5719
▁수건	-5720
▁수능	-5721
▁승진	-5722
▁시려	-5723
▁시선	-5724
▁실천	-5725
▁실패	-5726
▁실행	-5727
▁싸운	-5728
▁싸웠	-5729
▁쌓여	-5730
▁썸도	-5731
▁쓰일	-5732
▁아부	-5733
▁안고	-5734
▁안될	-5735
▁안맞	-5736
▁안부	-5737
▁안할	-5738
▁알까	-5739
▁애의	-5740
▁애인	-5741
▁액정	-5742
▁어흥	-5743
▁없고	-5744
▁엇갈	-5745
▁엠티	-5746
▁여쭤	-5747
▁역할	-5748
▁열어	-5749
▁열흘	-5750
▁영어	-5751
▁예능	-5752
▁예비	-5753
▁예상	-5754
▁예약	-5755
▁오길	-5756
▁오려	-5757
▁오바	-5758
▁오셨	-5759
▁옳은	-5760
▁와인	-5761
▁와플	-5762
▁왠지	-5763
▁외출	-5764
▁욕해	-5765
▁운이	-5766
▁울고	-5767
▁웃는	-5768
▁웃음	-5769
▁원동	-5770
▁원인	-5771
▁원치	-5772
▁월세	-5773
▁웨딩	-5774
▁웹툰	-5775
▁으아	-5776
▁음료	-5777
▁이끌	-5778
▁이왕	-5779
▁인상	-5780
▁인지	-5781
▁일기	-5782
▁일방	-5783
▁일부	-5784
▁일시	-5785
▁읽어	-5786
▁임용	-5787
▁입학	-5788
▁있대	-5789
▁잊기	-5790
▁자장	-5791
▁작동	-5792
▁잘라	-5793
▁잠들	-5794
▁잡념	-5795
▁장갑	-5796
▁적당	-5797
▁전과	-5798
▁전학	-5799
▁절친	-5800
▁정장	-5801
▁정정	-5802
▁제정	-5803
▁조가	-5804
▁졸린	-5805
▁좋긴	-5806
▁좋음	-5807
▁좌절	-5808
▁죄가	-5809
▁주량	-5810
▁주워	-5811
▁즐겨	-5812
▁증거	-5813
▁증명	-5814
▁지각	-5815
▁지낸	-5816
▁지속	-5817
▁지압	-5818
▁지적	-5819
▁지친	-5820
▁직업	-5821
▁직전	-5822
▁질려	-5823
▁질린	-5824
▁질문	-5825
▁짧죠	-5826
▁찍는	-5827
▁찍어	-5828
▁찢어	-5829
▁차인	-5830
▁참다	-5831
▁처리	-5832
▁청결	-5833
▁청춘	-5834
▁최신	-5835
▁최저	-5836
▁축제	-5837
▁춥네	-5838
▁친절	-5839
▁친척	-5840
▁침묵	-5841
▁커서	-5842
▁케익	-5843
▁킁킁	-5844
▁키울	-5845
▁타나	-5846
▁타러	-5847
▁타인	-5848
▁탈모	-5849
▁태연	-5850
▁터지	-5851
▁터질	-5852
▁토닥	-5853
▁톡이	-5854
▁파도	-5855
▁팍팍	-5856
▁패션	-5857
▁포맷	-5858
▁폭식	-5859
▁피로	-5860
▁필기	-5861
▁필수	-5862
▁하러	-5863
▁하아	-5864
▁학벌	-5865
▁한약	-5866
▁한푼	-5867
▁할지	-5868
▁합리	-5869
▁해로	-5870
▁해준	-5871
▁했을	-5872
▁허락	-5873
▁현타	-5874
▁혼수	-5875
▁확률	-5876
▁환기	-5877
▁황당	-5878
▁회의	-5879
▁훔쳐	-5880
▁휴학	-5881
▁흐른	-5882
개월차	-5883
건강에	-5884
겠네여	-5885
기간을	-5886
다는걸	-5887
다는데	-5888
되어야	-5889
드리는	-5890
드위치	-5891
들이랑	-5892
뜨리기	-5893
렵니다	-5894
마다의	-5895
바퀴만	-5896
보려고	-5897
봤는데	-5898
센터에	-5899
셨나요	-5900
시키는	-5901
야해요	-5902
어가길	-5903
여행이	-5904
였나요	-5905
왔으면	-5906
이니까	-5907
이었어	-5908
졌어요	-5909
줬더니	-5910
지능에	-5911
칼로리	-5912
하기가	-5913
하기로	-5914
하는건	-5915
하려면	-5916
할까요	-5917
해봐도	-5918
해졌죠	-5919
해줘서	-5920
해지길	-5921
해지네	-5922
했다고	-5923
했다면	-5924
했던거	-5925
했을까	-5926
▁가기로	-5927
▁가끔씩	-5928
▁가네요	-5929
▁가는게	-5930
▁가려고	-5931
▁가볍게	-5932
▁가봐요	-5933
▁가야돼	-5934
▁가족들	-5935
▁각질제	-5936
▁간만에	-5937
▁간절히	-5938
▁갈수록	-5939
▁감각이	-5940
▁감정기	-5941
▁갑니다	-5942
▁거겠지	-5943
▁거라면	-5944
▁건강을	-5945
▁건들지	-5946
▁걸음을	-5947
▁것이죠	-5948
▁겠지만	-5949
▁결과가	-5950
▁결국엔	-5951
▁결혼을	-5952
▁계기가	-5953
▁고시원	-5954
▁고양이	-5955
▁곳까지	-5956
▁곳이죠	-5957
▁관계의	-5958
▁괜찮길	-5959
▁괜찮다	-5960
▁구멍이	-5961
▁귀여울	-5962
▁그것도	-5963
▁그녀도	-5964
▁그런가	-5965
▁그런지	-5966
▁그린라	-5967
▁그만둬	-5968
▁근처로	-5969
▁글쎄요	-5970
▁기르고	-5971
▁기술이	-5972
▁기억에	-5973
▁기억은	-5974
▁기억해	-5975
▁기울여	-5976
▁기준이	-5977
▁깨달음	-5978
▁꼼수를	-5979
▁꽃길만	-5980
▁끊겼어	-5981
▁나가면	-5982
▁나는데	-5983
▁나오네	-5984
▁나올거	-5985
▁나왔네	-5986
▁나이에	-5987
▁나이테	-5988
▁남겨서	-5989
▁남아있	-5990
▁남이니	-5991
▁남자의	-5992
▁낭만이	-5993
▁내일을	-5994
▁내일이	-5995
▁노래는	-5996
▁누구야	-5997
▁다녀도	-5998
▁다르게	-5999
▁다르지	-6000
▁다리가	-6001
▁단맛도	-6002
▁달라요	-6003
▁답답할	-6004
▁답정녀	-6005
▁대기업	-6006
▁대청소	-6007
▁대화의	-6008
▁더워서	-6009
▁도전은	-6010
▁돌리는	-6011
▁돌아서	-6012
▁동영상	-6013
▁되려고	-6014
▁되려면	-6015
▁되어요	-6016
▁되었길	-6017
▁되었네	-6018
▁되었을	-6019
▁된다고	-6020
▁두세요	-6021
▁뒷감당	-6022
▁드려요	-6023
▁들이대	-6024
▁따듯한	-6025
▁따라가	-6026
▁때로는	-6027
▁때부터	-6028
▁떠나간	-6029
▁떨린다	-6030
▁떨어뜨	-6031
▁똑같애	-6032
▁뛰어넘	-6033
▁레시피	-6034
▁마시지	-6035
▁막히는	-6036
▁막힌다	-6037
▁만남은	-6038
▁만났던	-6039
▁만났든	-6040
▁만들기	-6041
▁만지지	-6042
▁많으시	-6043
▁많은가	-6044
▁많은걸	-6045
▁말아야	-6046
▁말해서	-6047
▁말해주	-6048
▁맘처럼	-6049
▁맛있다	-6050
▁맛있어	-6051
▁망설여	-6052
▁맞으면	-6053
▁매력을	-6054
▁먹거나	-6055
▁먹는데	-6056
▁먹어도	-6057
▁먹어야	-6058
▁멈추지	-6059
▁메뉴얼	-6060
▁면도기	-6061
▁면역이	-6062
▁명상을	-6063
▁모습도	-6064
▁모자라	-6065
▁몸에는	-6066
▁무시해	-6067
▁무의식	-6068
▁무조건	-6069
▁문제죠	-6070
▁뭐하나	-6071
▁뭐하면	-6072
▁미래를	-6073
▁미련을	-6074
▁미용실	-6075
▁발전이	-6076
▁방법도	-6077
▁배울까	-6078
▁버리는	-6079
▁버스가	-6080
▁버티고	-6081
▁벅찰텐	-6082
▁베트남	-6083
▁베풀고	-6084
▁변해요	-6085
▁변화도	-6086
▁보기로	-6087
▁보내지	-6088
▁보냈네	-6089
▁보답을	-6090
▁보름달	-6091
▁보일러	-6092
▁부분을	-6093
▁부족해	-6094
▁불안해	-6095
▁불편한	-6096
▁붙잡는	-6097
▁붙잡아	-6098
▁비밀은	-6099
▁비밀을	-6100
▁비세요	-6101
▁비싸요	-6102
▁빠르면	-6103
▁빠지면	-6104
▁뻑뻑해	-6105
▁사과할	-6106
▁사귀어	-6107
▁사람인	-6108
▁사랑니	-6109
▁사이로	-6110
▁산책을	-6111
▁살쪄도	-6112
▁새신발	-6113
▁생각도	-6114
▁생겨서	-6115
▁선택이	-6116
▁설레는	-6117
▁설렘이	-6118
▁성공한	-6119
▁성별을	-6120
▁성적이	-6121
▁소리를	-6122
▁소문이	-6123
▁소소한	-6124
▁소액결	-6125
▁소화가	-6126
▁속시원	-6127
▁속이는	-6128
▁손가락	-6129
▁술마시	-6130
▁술한잔	-6131
▁쉽지가	-6132
▁스키장	-6133
▁시선을	-6134
▁시작할	-6135
▁식습관	-6136
▁싫어요	-6137
▁심심해	-6138
▁싶으면	-6139
▁싸우고	-6140
▁싸웠어	-6141
▁썸녀가	-6142
▁썸타고	-6143
▁쓰려고	-6144
▁쓰면서	-6145
▁쓰이는	-6146
▁아껴뒀	-6147
▁아는거	-6148
▁아니길	-6149
▁아니네	-6150
▁아니지	-6151
▁아쉬운	-6152
▁아울렛	-6153
▁아이디	-6154
▁아프게	-6155
▁아픔도	-6156
▁안받아	-6157
▁안부를	-6158
▁안좋아	-6159
▁안좋은	-6160
▁안타까	-6161
▁않았길	-6162
▁않지요	-6163
▁알겠어	-6164
▁알뜰폰	-6165
▁알바생	-6166
▁알아볼	-6167
▁앞에선	-6168
▁애매한	-6169
▁애틋한	-6170
▁애프터	-6171
▁야경이	-6172
▁어느새	-6173
▁어떡함	-6174
▁어렵다	-6175
▁어리석	-6176
▁어쩌면	-6177
▁어플로	-6178
▁어플을	-6179
▁언니랑	-6180
▁얼굴에	-6181
▁엄마랑	-6182
▁없는지	-6183
▁없지요	-6184
▁여러명	-6185
▁여자로	-6186
▁연락도	-6187
▁연애중	-6188
▁연인과	-6189
▁염색을	-6190
▁영양제	-6191
▁예감은	-6192
▁예민해	-6193
▁예뻐질	-6194
▁예의일	-6195
▁오니까	-6196
▁오디션	-6197
▁오라고	-6198
▁오해가	-6199
▁옷이요	-6200
▁외롭고	-6201
▁욕하고	-6202
▁용기내	-6203
▁우산에	-6204
▁우연이	-6205
▁우정이	-6206
▁운동할	-6207
▁월급날	-6208
▁월급은	-6209
▁위로를	-6210
▁위험한	-6211
▁위험해	-6212
▁유부녀	-6213
▁의심해	-6214
▁이기니	-6215
▁이러는	-6216
▁이력서	-6217
▁이별중	-6218
▁이별할	-6219
▁이사를	-6220
▁이어질	-6221
▁이어폰	-6222
▁이유로	-6223
▁이해를	-6224
▁이해못	-6225
▁인내할	-6226
▁인맥이	-6227
▁인생의	-6228
▁인터넷	-6229
▁일요일	-6230
▁일인지	-6231
▁입냄새	-6232
▁잇몸약	-6233
▁있거나	-6234
▁있겠다	-6235
▁있군요	-6236
▁있냐고	-6237
▁있었어	-6238
▁잊지못	-6239
▁잊혀져	-6240
▁자다가	-6241
▁자신은	-6242
▁자야지	-6243
▁자장면	-6244
▁잘생겼	-6245
▁잘지내	-6246
▁잘하면	-6247
▁잡아도	-6248
▁장학금	-6249
▁재밌을	-6250
▁저녁에	-6251
▁전여자	-6252
▁전하지	-6253
▁접는게	-6254
▁접어야	-6255
▁정리해	-6256
▁정신이	-6257
▁정해져	-6258
▁조심히	-6259
▁조절을	-6260
▁존중해	-6261
▁종교의	-6262
▁좋네요	-6263
▁좋대요	-6264
▁좋아서	-6265
▁좋았던	-6266
▁좋은거	-6267
▁좋을거	-6268
▁주저리	-6269
▁준다면	-6270
▁준비할	-6271
▁즐거울	-6272
▁즐겁게	-6273
▁즐기는	-6274
▁지극히	-6275
▁지금의	-6276
▁지루해	-6277
▁지웠어	-6278
▁지진시	-6279
▁지쳐서	-6280
▁지칠만	-6281
▁진실된	-6282
▁짝녀를	-6283
▁짠하고	-6284
▁찌질한	-6285
▁참았어	-6286
▁채워질	-6287
▁초기화	-6288
▁최고의	-6289
▁최악의	-6290
▁추천해	-6291
▁커플링	-6292
▁커피가	-6293
▁커피는	-6294
▁케이스	-6295
▁콩깍지	-6296
▁키우는	-6297
▁틀리는	-6298
▁파도가	-6299
▁편의점	-6300
▁포기가	-6301
▁풀어야	-6302
▁피하는	-6303
▁피해만	-6304
▁하나죠	-6305
▁하다니	-6306
▁하루는	-6307
▁하지도	-6308
▁한국도	-6309
▁한번더	-6310
▁한번쯤	-6311
▁한심해	-6312
▁할까요	-6313
▁함께도	-6314
▁해결될	-6315
▁해줄까	-6316
▁행동은	-6317
▁허리가	-6318
▁헤아릴	-6319
▁헷갈리	-6320
▁호랑이	-6321
▁호의를	-6322
▁혼자를	-6323
▁화장이	-6324
▁후회만	-6325
▁후회해	-6326
▁휴식도	-6327
▁흐르는	-6328
▁흘러가	-6329
▁희망은	-6330
▁희망이	-6331
▁힘들까	-6332
기만해도	-6333
드시거나	-6334
리겠어요	-6335
받으세요	-6336
보이네요	-6337
사람친구	-6338
성이에요	-6339
시나봐요	-6340
시는구나	-6341
실거예요	-6342
어두세요	-6343
있습니다	-6344
적이네요	-6345
지마세요	-6346
체적으로	-6347
하나봐요	-6348
하셨어요	-6349
해야할지	-6350
해졌어요	-6351
▁가능하죠	-6352
▁가능한가	-6353
▁가리세요	-6354
▁가족한테	-6355
▁간사하죠	-6356
▁감사하는	-6357
▁감으세요	-6358
▁갑작스럽	-6359
▁거짓말은	-6360
▁거짓말을	-6361
▁걱정이야	-6362
▁건강습관	-6363
▁건강하게	-6364
▁견뎌내고	-6365
▁결혼준비	-6366
▁결혼하고	-6367
▁결혼하기	-6368
▁결혼해야	-6369
▁고마움을	-6370
▁고민이죠	-6371
▁공부하면	-6372
▁과식하지	-6373
▁관심사에	-6374
▁괜찮겠지	-6375
▁괜찮을거	-6376
▁교양수업	-6377
▁그렇겠죠	-6378
▁금수저로	-6379
▁기다려도	-6380
▁기다리던	-6381
▁기본으로	-6382
▁기본이죠	-6383
▁깔끔해질	-6384
▁깨닫다니	-6385
▁꼬박꼬박	-6386
▁나겠네요	-6387
▁날이네요	-6388
▁남았네요	-6389
▁남이에요	-6390
▁남자분들	-6391
▁남자에게	-6392
▁남친이랑	-6393
▁낭만적인	-6394
▁너무나도	-6395
▁너무너무	-6396
▁넘어가네	-6397
▁넘었는데	-6398
▁놀이공원	-6399
▁높겠네요	-6400
▁놓으세요	-6401
▁눈높이가	-6402
▁늦었어요	-6403
▁다녀왔어	-6404
▁다릅니다	-6405
▁다하세요	-6406
▁단체생활	-6407
▁단호하게	-6408
▁달라져요	-6409
▁달라지지	-6410
▁당분간은	-6411
▁당신만이	-6412
▁데이트가	-6413
▁동생한테	-6414
▁드립니다	-6415
▁들리려고	-6416
▁들어가서	-6417
▁떨어지는	-6418
▁마셨는데	-6419
▁마음에서	-6420
▁마음이랑	-6421
▁만난다면	-6422
▁만화같은	-6423
▁맡기세요	-6424
▁먹었더니	-6425
▁멀어지면	-6426
▁멈추세요	-6427
▁메모하는	-6428
▁모두에게	-6429
▁모아야할	-6430
▁목표네요	-6431
▁무너져요	-6432
▁무섭나요	-6433
▁무한리필	-6434
▁문제네요	-6435
▁물어봐도	-6436
▁미안하다	-6437
▁바쁜일이	-6438
▁반가워요	-6439
▁받으세요	-6440
▁벗어나는	-6441
▁변화시켜	-6442
▁보내시길	-6443
▁보다보면	-6444
▁보일러가	-6445
▁보험처리	-6446
▁부모님을	-6447
▁분위기를	-6448
▁불공평해	-6449
▁비교하면	-6450
▁비밀연애	-6451
▁비정규직	-6452
▁비행기표	-6453
▁뿌린대로	-6454
▁사람이다	-6455
▁사람이야	-6456
▁사람하고	-6457
▁사랑이죠	-6458
▁사랑인지	-6459
▁사랑할까	-6460
▁사생활이	-6461
▁살아있음	-6462
▁상대방의	-6463
▁샌드위치	-6464
▁생각들을	-6465
▁생각하게	-6466
▁생겼어요	-6467
▁생긴다는	-6468
▁선물하면	-6469
▁선생님께	-6470
▁소유하는	-6471
▁쇼핑하고	-6472
▁수면양말	-6473
▁쉬어가도	-6474
▁스타일이	-6475
▁스테이크	-6476
▁슬퍼하고	-6477
▁습관처럼	-6478
▁시간내서	-6479
▁시기네요	-6480
▁신경쓰고	-6481
▁신경쓰면	-6482
▁신경쓰이	-6483
▁신고하고	-6484
▁심어볼까	-6485
▁심해지는	-6486
▁싶어하는	-6487
▁썸녀한테	-6488
▁쓸데없는	-6489
▁아름답죠	-6490
▁아쉬움이	-6491
▁아침부터	-6492
▁아팠으면	-6493
▁안타깝게	-6494
▁안해먹고	-6495
▁않겠네요	-6496
▁알아보는	-6497
▁어느정도	-6498
▁어둠에서	-6499
▁어떠세요	-6500
▁어떡하죠	-6501
▁어머어머	-6502
▁어찌해야	-6503
▁엄마아빠	-6504
▁없는걸까	-6505
▁없답니다	-6506
▁없어졌어	-6507
▁에너지가	-6508
▁에너지를	-6509
▁여자에게	-6510
▁여친에게	-6511
▁연락왔어	-6512
▁연락할까	-6513
▁연애세포	-6514
▁염탐하지	-6515
▁오래오래	-6516
▁올거예요	-6517
▁왜이렇게	-6518
▁외로움을	-6519
▁용서하고	-6520
▁웃으면서	-6521
▁원동력이	-6522
▁원인이죠	-6523
▁원한다면	-6524
▁유효기간	-6525
▁의식하는	-6526
▁이름이랑	-6527
▁이모티콘	-6528
▁이별하는	-6529
▁이불밖은	-6530
▁이상적인	-6531
▁이어보고	-6532
▁이어주는	-6533
▁이왕이면	-6534
▁이제서야	-6535
▁이해하고	-6536
▁이해하기	-6537
▁익숙해져	-6538
▁인생에서	-6539
▁인지시켜	-6540
▁인테리어	-6541
▁일어나면	-6542
▁일하면서	-6543
▁입으세요	-6544
▁있는걸까	-6545
▁있답니다	-6546
▁있으세요	-6547
▁잊어가는	-6548
▁잊혀질까	-6549
▁잘지내고	-6550
▁잠재력을	-6551
▁재미있어	-6552
▁재밌는거	-6553
▁저마다의	-6554
▁정신없이	-6555
▁존중하고	-6556
▁졸업식에	-6557
▁좋아지고	-6558
▁좋아지는	-6559
▁지금부터	-6560
▁지하철에	-6561
▁집에서도	-6562
▁짜증나네	-6563
▁차였는데	-6564
▁찾아가는	-6565
▁찾아봐요	-6566
▁찾아오는	-6567
▁챙겨주면	-6568
▁챙기세요	-6569
▁취미네요	-6570
▁취직하면	-6571
▁친구들을	-6572
▁친구라면	-6573
▁친구인데	-6574
▁친해지는	-6575
▁컴퓨터가	-6576
▁클럽에서	-6577
▁판단되면	-6578
▁표현하지	-6579
▁피부관리	-6580
▁필요하지	-6581
▁하느냐에	-6582
▁하니까요	-6583
▁하다보니	-6584
▁하셨군요	-6585
▁하지말고	-6586
▁한가지만	-6587
▁한답니다	-6588
▁한바퀴만	-6589
▁함께하고	-6590
▁합리적인	-6591
▁해결되길	-6592
▁해보려고	-6593
▁해봤는데	-6594
▁해야겠지	-6595
▁핸드폰이	-6596
▁헤어짐은	-6597
▁헬스장에	-6598
▁헷갈리네	-6599
▁형편대로	-6600
▁혼자해도	-6601
▁확인하는	-6602
▁후련하네	-6603
▁후련하니	-6604
▁후회하는	-6605
▁후회할까	-6606
▁힘들겠죠	-6607
▁힘들지만	-6608
원해보세요	-6609
조심하세요	-6610
하셨겠어요	-6611
한가봅니다	-6612
▁가능하다고	-6613
▁가족들이랑	-6614
▁간직하세요	-6615
▁갑작스러운	-6616
▁결혼적령기	-6617
▁고민하느라	-6618
▁고백하는게	-6619
▁고백하세요	-6620
▁공부하세요	-6621
▁공부해야지	-6622
▁괜찮아지고	-6623
▁그린라이트	-6624
▁기다리세요	-6625
▁기다릴게요	-6626
▁끝났습니다	-6627
▁나갈거예요	-6628
▁나눠보는게	-6629
▁나쁜거예요	-6630
▁남자입니다	-6631
▁놀랐겠어요	-6632
▁놀랐나봐요	-6633
▁놀러가세요	-6634
▁다가가세요	-6635
▁다행이네요	-6636
▁대단하네요	-6637
▁대피방법을	-6638
▁덜어보세요	-6639
▁데려가세요	-6640
▁도와달라고	-6641
▁동감입니다	-6642
▁두근거림을	-6643
▁드려보세요	-6644
▁들려주세요	-6645
▁들었겠네요	-6646
▁따뜻해졌죠	-6647
▁로봇이에요	-6648
▁만남이네요	-6649
▁만들었어요	-6650
▁망가뜨리기	-6651
▁밀어보세요	-6652
▁바람이라도	-6653
▁받아들여야	-6654
▁벅찰텐대요	-6655
▁병원가세요	-6656
▁보냈습니다	-6657
▁불편하겠죠	-6658
▁비하하지는	-6659
▁사랑스러운	-6660
▁사랑이라는	-6661
▁사랑이에요	-6662
▁사랑하니까	-6663
▁삭제하는게	-6664
▁상관없지만	-6665
▁생각이네요	-6666
▁생각한대로	-6667
▁생각할게요	-6668
▁생각할수록	-6669
▁생겼을지도	-6670
▁선물이네요	-6671
▁선택이었을	-6672
▁성공적으로	-6673
▁세워보세요	-6674
▁소개팅으로	-6675
▁소개팅하고	-6676
▁소중합니다	-6677
▁스타트업에	-6678
▁스트레스를	-6679
▁스트레스야	-6680
▁스트레스의	-6681
▁시간이네요	-6682
▁시켜달라고	-6683
▁아직이라면	-6684
▁알아두세요	-6685
▁알아차려도	-6686
▁알아차리지	-6687
▁애정표현일	-6688
▁없애주세요	-6689
▁없으니까요	-6690
▁여쭤보세요	-6691
▁여행이네요	-6692
▁연락이라도	-6693
▁연락하는게	-6694
▁연락하라고	-6695
▁연락해보는	-6696
▁연락해봐요	-6697
▁오늘이에요	-6698
▁운동하세요	-6699
▁움직이세요	-6700
▁위해서예요	-6701
▁응원할게요	-6702
▁이야기하고	-6703
▁이야기하는	-6704
▁이어나가는	-6705
▁인공지능에	-6706
▁일어나세요	-6707
▁있었을지도	-6708
▁자체만으로	-6709
▁잘못입니다	-6710
▁잡아보세요	-6711
▁재밌겠어요	-6712
▁점심시간에	-6713
▁정리하세요	-6714
▁정신건강에	-6715
▁정정기간을	-6716
▁제자리걸음	-6717
▁조급해지면	-6718
▁졸업하는데	-6719
▁좋으시네요	-6720
▁주의하세요	-6721
▁준비하기는	-6722
▁준비하느라	-6723
▁지저분해요	-6724
▁직접적으로	-6725
▁질러보세요	-6726
▁청소하세요	-6727
▁치료하세요	-6728
▁친구들한테	-6729
▁친해지는게	-6730
▁칭찬이네요	-6731
▁칭찬해주고	-6732
▁포장하는게	-6733
▁표현해보는	-6734
▁하루하루가	-6735
▁하우스웨딩	-6736
▁해드릴게요	-6737
▁해야겠네여	-6738
▁행복하세요	-6739
▁행복해보여	-6740
▁호랑이보다	-6741
▁확실해지면	-6742
▁흘려보세요	-6743
▁힘드니까요	-6744
▁간절하겠네요	-6745
▁개시해보세요	-6746
▁걱정되겠어요	-6747
▁결정했나봐요	-6748
▁극복해보세요	-6749
▁낳을뿐이에요	-6750
▁넓으신가봐요	-6751
▁놔둬야하는데	-6752
▁대단하시군요	-6753
▁되짚어보세요	-6754
▁많았나봅니다	-6755
▁부딪혔나봐요	-6756
▁부탁드립니다	-6757
▁분담해보세요	-6758
▁사랑하는지는	-6759
▁삭제해보세요	-6760
▁아껴뒀나봐요	-6761
▁연락두절돼서	-6762
▁운동해보세요	-6763
▁위로해드리는	-6764
▁이해해보세요	-6765
▁재미있나봐요	-6766
▁절약되겠네요	-6767
▁정신차리세요	-6768
▁존중해주세요	-6769
▁챙겨드시거나	-6770
▁축하해주세요	-6771
▁포맷해보세요	-6772
▁피곤했나봐요	-6773
▁필요해보여요	-6774
▁확인해달라고	-6775
▁힘드시겠어요	-6776
▁걱정하지마세요	-6777
▁결정이었을거라	-6778
▁말씀드려보세요	-6779
▁부담스러워할까	-6780
▁적응해야겠네요	-6781
▁좋아하시는구나	-6782
▁프로포즈해보세요	-6783
▁갱	-6784
▁겉	-6785
▁곤	-6786
▁깍	-6787
▁깰	-6788
▁껴	-6789
▁꽝	-6790
▁꿔	-6791
▁꿰	-6792
▁낸	-6793
▁넋	-6794
▁뇌	-6795
▁눌	-6796
▁눕	-6797
▁덥	-6798
▁돋	-6799
▁돕	-6800
▁뒀	-6801
▁떴	-6802
▁떼	-6803
▁뜬	-6804
▁묘	-6805
▁박	-6806
▁벤	-6807
▁볶	-6808
▁빛	-6809
▁뻐	-6810
▁뽀	-6811
▁숫	-6812
▁쌍	-6813
▁앱	-6814
▁얽	-6815
▁엊	-6816
▁엿	-6817
▁욜	-6818
▁워	-6819
▁잼	-6820
▁젤	-6821
▁쥐	-6822
▁짰	-6823
▁쪄	-6824
▁쭉	-6825
▁춘	-6826
▁캬	-6827
▁턱	-6828
▁텀	-6829
▁텅	-6830
▁퇴	-6831
▁틈	-6832
▁팁	-6833
▁팩	-6834
▁펴	-6835
▁헐	-6836
▁헥	-6837
▁헹	-6838
▁홈	-6839
▁홧	-6840
▁흠	-6841
▁히	-6842
가서	-6843
가에	-6844
가한	-6845
간대	-6846
간질	-6847
갔다	-6848
거든	-6849
걸이	-6850
겁한	-6851
게해	-6852
경이	-6853
계절	-6854
고의	-6855
과류	-6856
구로	-6857
그램	-6858
그런	-6859
극이	-6860
근한	-6861
근해	-6862
긋지	-6863
긋한	-6864
기사	-6865
기한	-6866
길래	-6867
꺼풀	-6868
꼈어	-6869
꾸던	-6870
꾸로	-6871
났을	-6872
낭비	-6873
내길	-6874
너덜	-6875
년만	-6876
년반	-6877
년사	-6878
년전	-6879
놓지	-6880
는다	-6881
니깐	-6882
님들	-6883
다운	-6884
닥을	-6885
달래	-6886
답이	-6887
더군	-6888
도라	-6889
독여	-6890
동거	-6891
동물	-6892
동차	-6893
됐네	-6894
된다	-6895
됬네	-6896
두리	-6897
들의	-6898
따로	-6899
때문	-6900
땜에	-6901
떨떨	-6902
란다	-6903
량의	-6904
려는	-6905
렸다	-6906
로라	-6907
로션	-6908
로잡	-6909
르몬	-6910
른다	-6911
릴있	-6912
마디	-6913
만남	-6914
망이	-6915
먹을	-6916
문득	-6917
물주	-6918
미고	-6919
바구	-6920
받은	-6921
발이	-6922
방비	-6923
버림	-6924
번을	-6925
번의	-6926
베리	-6927
보낼	-6928
보려	-6929
볶이	-6930
봐야	-6931
부르	-6932
부한	-6933
불러	-6934
뿐이	-6935
사이	-6936
사자	-6937
사진	-6938
상일	-6939
샜어	-6940
서요	-6941
서히	-6942
선배	-6943
설계	-6944
섭섭	-6945
성에	-6946
성을	-6947
셨어	-6948
소짓	-6949
수건	-6950
스레	-6951
시도	-6952
시방	-6953
시에	-6954
시지	-6955
신가	-6956
신고	-6957
신청	-6958
실에	-6959
실을	-6960
싶네	-6961
싸움	-6962
썸남	-6963
아파	-6964
안나	-6965
안할	-6966
액션	-6967
약이	-6968
었나	-6969
었는	-6970
었지	-6971
여도	-6972
여서	-6973
여주	-6974
연이	-6975
오게	-6976
오지	-6977
올까	-6978
와도	-6979
욕탕	-6980
용품	-6981
워시	-6982
워야	-6983
웠던	-6984
은지	-6985
의별	-6986
의의	-6987
이상	-6988
이진	-6989
이집	-6990
인공	-6991
일은	-6992
임금	-6993
임말	-6994
자가	-6995
잔치	-6996
쟁이	-6997
저히	-6998
적일	-6999
점이	-7000
좋아	-7001
주에	-7002
주의	-7003
주인	-7004
준대	-7005
줘도	-7006
줘서	-7007
즈를	-7008
지질	-7009
직이	-7010
질때	-7011
짼데	-7012
차게	-7013
찰랑	-7014
채기	-7015
천번	-7016
체가	-7017
쳐서	-7018
쳤다	-7019
초가	-7020
초에	-7021
치료	-7022
커플	-7023
코인	-7024
키기	-7025
타는	-7026
탈까	-7027
탈이	-7028
탔어	-7029
통이	-7030
통제	-7031
트로	-7032
트를	-7033
편이	-7034
평가	-7035
폭발	-7036
피해	-7037
학원	-7038
한대	-7039
한듯	-7040
할래	-7041
할수	-7042
헤어	-7043
혔어	-7044
활용	-7045
효도	-7046
휴일	-7047
히나	-7048
...	-7049
▁11	-7050
▁ᅮᅮ	-7051
▁가본	-7052
▁가시	-7053
▁가입	-7054
▁가자	-7055
▁간섭	-7056
▁간질	-7057
▁갈궈	-7058
▁갈등	-7059
▁갔나	-7060
▁거도	-7061
▁거둬	-7062
▁거에	-7063
▁거였	-7064
▁건데	-7065
▁걸요	-7066
▁겁나	-7067
▁것에	-7068
▁것일	-7069
▁겠지	-7070
▁격식	-7071
▁견적	-7072
▁계산	-7073
▁계약	-7074
▁고집	-7075
▁곤두	-7076
▁골랐	-7077
▁공간	-7078
▁공복	-7079
▁공황	-7080
▁관찰	-7081
▁구매	-7082
▁구박	-7083
▁굳이	-7084
▁그나	-7085
▁그도	-7086
▁그림	-7087
▁그의	-7088
▁그지	-7089
▁그쪽	-7090
▁근교	-7091
▁근데	-7092
▁기네	-7093
▁기름	-7094
▁기쁨	-7095
▁기침	-7096
▁길을	-7097
▁김에	-7098
▁까아	-7099
▁깨진	-7100
▁깨짐	-7101
▁꾸죠	-7102
▁끊기	-7103
▁끊는	-7104
▁끊어	-7105
▁끌지	-7106
▁끝의	-7107
▁나게	-7108
▁나란	-7109
▁나빴	-7110
▁난감	-7111
▁날짜	-7112
▁남녀	-7113
▁낮술	-7114
▁내딛	-7115
▁내맘	-7116
▁너덜	-7117
▁너랑	-7118
▁너와	-7119
▁넘게	-7120
▁넘넘	-7121
▁넘은	-7122
▁노잼	-7123
▁놀자	-7124
▁놓는	-7125
▁놓지	-7126
▁누워	-7127
▁느꼈	-7128
▁늘어	-7129
▁다듬	-7130
▁답을	-7131
▁대상	-7132
▁대쉬	-7133
▁덥다	-7134
▁데도	-7135
▁데서	-7136
▁돕는	-7137
▁돼서	-7138
▁돼지	-7139
▁되게	-7140
▁될지	-7141
▁두렵	-7142
▁둘다	-7143
▁드려	-7144
▁듣는	-7145
▁들게	-7146
▁듯한	-7147
▁따끔	-7148
▁따져	-7149
▁딱히	-7150
▁딴짓	-7151
▁때인	-7152
▁떨고	-7153
▁뜨끈	-7154
▁뜨는	-7155
▁라는	-7156
▁마라	-7157
▁만한	-7158
▁말과	-7159
▁말만	-7160
▁말자	-7161
▁망상	-7162
▁망한	-7163
▁맞게	-7164
▁맞을	-7165
▁맞이	-7166
▁맞출	-7167
▁매몰	-7168
▁매운	-7169
▁매정	-7170
▁먹기	-7171
▁먹나	-7172
▁멈출	-7173
▁멋질	-7174
▁메리	-7175
▁모여	-7176
▁몸과	-7177
▁몸살	-7178
▁못난	-7179
▁못생	-7180
▁무지	-7181
▁미운	-7182
▁믿는	-7183
▁믿음	-7184
▁밑바	-7185
▁바란	-7186
▁바래	-7187
▁반년	-7188
▁반영	-7189
▁받네	-7190
▁받았	-7191
▁받음	-7192
▁발라	-7193
▁발이	-7194
▁밤만	-7195
▁밤새	-7196
▁밥은	-7197
▁배가	-7198
▁배정	-7199
▁백수	-7200
▁뱃살	-7201
▁버림	-7202
▁번만	-7203
▁벌레	-7204
▁벌면	-7205
▁법을	-7206
▁벗겨	-7207
▁벗어	-7208
▁벤츠	-7209
▁병행	-7210
▁보수	-7211
▁보약	-7212
▁보임	-7213
▁보자	-7214
▁부케	-7215
▁부팅	-7216
▁분양	-7217
▁불순	-7218
▁불쑥	-7219
▁블랙	-7220
▁비만	-7221
▁비쌈	-7222
▁비오	-7223
▁비와	-7224
▁비용	-7225
▁비친	-7226
▁비트	-7227
▁비해	-7228
▁비혼	-7229
▁빼앗	-7230
▁사무	-7231
▁살려	-7232
▁살죠	-7233
▁삶에	-7234
▁삶은	-7235
▁샀다	-7236
▁서울	-7237
▁서핑	-7238
▁선배	-7239
▁설계	-7240
▁설렐	-7241
▁설마	-7242
▁세달	-7243
▁세탁	-7244
▁속아	-7245
▁속지	-7246
▁수십	-7247
▁수제	-7248
▁숙제	-7249
▁숙취	-7250
▁숫자	-7251
▁쉬다	-7252
▁스노	-7253
▁스쳐	-7254
▁스케	-7255
▁슬플	-7256
▁시급	-7257
▁식사	-7258
▁식욕	-7259
▁식은	-7260
▁식혀	-7261
▁실용	-7262
▁심난	-7263
▁심남	-7264
▁심쿵	-7265
▁싸울	-7266
▁쌓인	-7267
▁쏟아	-7268
▁쓰게	-7269
▁쓰면	-7270
▁쓰이	-7271
▁씨씨	-7272
▁아끼	-7273
▁아날	-7274
▁아냐	-7275
▁아놔	-7276
▁아래	-7277
▁아려	-7278
▁안풀	-7279
▁안한	-7280
▁않기	-7281
▁않으	-7282
▁알긴	-7283
▁애완	-7284
▁야구	-7285
▁야식	-7286
▁약점	-7287
▁양을	-7288
▁양치	-7289
▁얘는	-7290
▁어딘	-7291
▁어언	-7292
▁어째	-7293
▁억울	-7294
▁없앨	-7295
▁엉엉	-7296
▁에이	-7297
▁엮여	-7298
▁연상	-7299
▁연하	-7300
▁열받	-7301
▁영통	-7302
▁예고	-7303
▁예쁠	-7304
▁예정	-7305
▁예측	-7306
▁오죠	-7307
▁옥상	-7308
▁올게	-7309
▁옷은	-7310
▁와요	-7311
▁왜케	-7312
▁요청	-7313
▁욕을	-7314
▁욜로	-7315
▁용량	-7316
▁우습	-7317
▁웃게	-7318
▁웃고	-7319
▁원해	-7320
▁위축	-7321
▁유료	-7322
▁유통	-7323
▁으으	-7324
▁의존	-7325
▁이래	-7326
▁일과	-7327
▁일인	-7328
▁있던	-7329
▁잊자	-7330
▁자다	-7331
▁자요	-7332
▁자제	-7333
▁잘됐	-7334
▁잘한	-7335
▁잠식	-7336
▁장점	-7337
▁저기	-7338
▁저만	-7339
▁저음	-7340
▁저장	-7341
▁저주	-7342
▁저편	-7343
▁적은	-7344
▁적을	-7345
▁전할	-7346
▁절망	-7347
▁접은	-7348
▁접촉	-7349
▁정열	-7350
▁정이	-7351
▁젖은	-7352
▁제습	-7353
▁조별	-7354
▁졸라	-7355
▁종종	-7356
▁종지	-7357
▁좋네	-7358
▁주길	-7359
▁줄도	-7360
▁줄일	-7361
▁중문	-7362
▁줘야	-7363
▁즐길	-7364
▁지날	-7365
▁지수	-7366
▁지지	-7367
▁직후	-7368
▁질긴	-7369
▁쪼금	-7370
▁찔려	-7371
▁찬물	-7372
▁찼어	-7373
▁찾은	-7374
▁천국	-7375
▁초라	-7376
▁총회	-7377
▁추가	-7378
▁춥고	-7379
▁충실	-7380
▁취소	-7381
▁치마	-7382
▁친군	-7383
▁카공	-7384
▁크기	-7385
▁타면	-7386
▁탄다	-7387
▁태그	-7388
▁톡을	-7389
▁통장	-7390
▁투잡	-7391
▁페메	-7392
▁편린	-7393
▁편해	-7394
▁평범	-7395
▁표출	-7396
▁풀고	-7397
▁풀리	-7398
▁하객	-7399
▁하니	-7400
▁하필	-7401
▁학기	-7402
▁한결	-7403
▁한눈	-7404
▁한데	-7405
▁할게	-7406
▁할말	-7407
▁할인	-7408
▁핫한	-7409
▁해가	-7410
▁했네	-7411
▁허기	-7412
▁허허	-7413
▁헌신	-7414
▁헛된	-7415
▁헥헥	-7416
▁현관	-7417
▁혼나	-7418
▁혼내	-7419
▁혼밥	-7420
▁혼인	-7421
▁화나	-7422
▁화난	-7423
▁화학	-7424
▁화해	-7425
▁효도	-7426
▁훈훈	-7427
▁휘둘	-7428
▁흐려	-7429
▁히스	-7430
▁힘겨	-7431
▁힘은	-7432
가기도	-7433
가보다	-7434
갔네요	-7435
같네요	-7436
겁니다	-7437
게되네	-7438
기간이	-7439
기한이	-7440
나가는	-7441
난다고	-7442
난다면	-7443
날인데	-7444
년간의	-7445
년동안	-7446
년하고	-7447
는다고	-7448
는다는	-7449
는데는	-7450
는지도	-7451
다는것	-7452
다는게	-7453
다니는	-7454
달라는	-7455
당하는	-7456
당했어	-7457
도라의	-7458
독하고	-7459
드리러	-7460
때문에	-7461
라고는	-7462
렸으면	-7463
만나고	-7464
망이지	-7465
방법이	-7466
버리네	-7467
보려구	-7468
보셔요	-7469
보이나	-7470
빛으로	-7471
사람은	-7472
사진을	-7473
생각이	-7474
소짓게	-7475
속에서	-7476
스러웠	-7477
스럽네	-7478
스타일	-7479
시나요	-7480
싶네요	-7481
았다고	-7482
았더니	-7483
았어요	-7484
야겠어	-7485
야겠지	-7486
어진다	-7487
없어요	-7488
었다면	-7489
었을까	-7490
었지만	-7491
였는지	-7492
였을까	-7493
오는날	-7494
옵니다	-7495
왔네요	-7496
으라고	-7497
을때는	-7498
이나마	-7499
이면서	-7500
이야기	-7501
이지요	-7502
인거죠	-7503
인트가	-7504
있어요	-7505
있을까	-7506
자마자	-7507
적이면	-7508
지나봐	-7509
지부지	-7510
질까봐	-7511
플라워	-7512
하겠어	-7513
하다니	-7514
한거니	-7515
한다고	-7516
해보는	-7517
해져도	-7518
해지고	-7519
했나요	-7520
했다는	-7521
▁100	-7522
▁가거나	-7523
▁가라앉	-7524
▁가량의	-7525
▁가리는	-7526
▁가스비	-7527
▁가슴은	-7528
▁가치가	-7529
▁간절한	-7530
▁감정도	-7531
▁갔는지	-7532
▁갖자는	-7533
▁같다면	-7534
▁같으면	-7535
▁개인의	-7536
▁거꾸로	-7537
▁거라도	-7538
▁거리가	-7539
▁걱정을	-7540
▁건강한	-7541
▁걸렸어	-7542
▁걸었어	-7543
▁것이든	-7544
▁것일까	-7545
▁견과류	-7546
▁견디기	-7547
▁결국은	-7548
▁결혼에	-7549
▁결혼하	-7550
▁경쟁이	-7551
▁고독한	-7552
▁고르는	-7553
▁고민을	-7554
▁고백이	-7555
▁고백한	-7556
▁고치기	-7557
▁공감이	-7558
▁공부를	-7559
▁공휴일	-7560
▁관계는	-7561
▁관계도	-7562
▁관계에	-7563
▁관심있	-7564
▁괜찮지	-7565
▁괴롭다	-7566
▁구남친	-7567
▁구썸남	-7568
▁귀여운	-7569
▁귀엽죠	-7570
▁귀찮다	-7571
▁귀찮은	-7572
▁그것이	-7573
▁그대의	-7574
▁그러지	-7575
▁그런거	-7576
▁그만두	-7577
▁그분도	-7578
▁그분에	-7579
▁그에게	-7580
▁기대는	-7581
▁기억될	-7582
▁기억만	-7583
▁기운이	-7584
▁길거리	-7585
▁깨끗이	-7586
▁깨졌어	-7587
▁꿈에나	-7588
▁끊는게	-7589
▁끊어야	-7590
▁끝나도	-7591
▁끝나면	-7592
▁끝내는	-7593
▁끝인거	-7594
▁끝일줄	-7595
▁나가는	-7596
▁나가지	-7597
▁나갈까	-7598
▁나니까	-7599
▁나들이	-7600
▁나쁜놈	-7601
▁나약한	-7602
▁나오고	-7603
▁나온다	-7604
▁나이들	-7605
▁나타나	-7606
▁날씨도	-7607
▁남기고	-7608
▁남기는	-7609
▁남는게	-7610
▁났나봐	-7611
▁내리지	-7612
▁내버려	-7613
▁넋두리	-7614
▁노래가	-7615
▁노후는	-7616
▁놓아줄	-7617
▁놓치고	-7618
▁놓치지	-7619
▁누구냐	-7620
▁누우면	-7621
▁눈꺼풀	-7622
▁느껴지	-7623
▁다갔어	-7624
▁다니는	-7625
▁다닐까	-7626
▁다독여	-7627
▁다른데	-7628
▁다시는	-7629
▁다양한	-7630
▁다정한	-7631
▁단순한	-7632
▁단톡방	-7633
▁달달할	-7634
▁달라질	-7635
▁담배를	-7636
▁답장을	-7637
▁당당히	-7638
▁당사자	-7639
▁당신만	-7640
▁대단한	-7641
▁대하는	-7642
▁대학원	-7643
▁더이상	-7644
▁데리러	-7645
▁도와드	-7646
▁도저히	-7647
▁도전이	-7648
▁독하게	-7649
▁돌아갈	-7650
▁돌아와	-7651
▁동생이	-7652
▁되겠죠	-7653
▁되네요	-7654
▁되시길	-7655
▁된다면	-7656
▁두려운	-7657
▁뒤돌아	-7658
▁뒷통수	-7659
▁드레스	-7660
▁든든할	-7661
▁들어맞	-7662
▁들어요	-7663
▁들으며	-7664
▁들텐데	-7665
▁딱이죠	-7666
▁때리기	-7667
▁때마다	-7668
▁땡긴다	-7669
▁떡볶이	-7670
▁떨려서	-7671
▁떨어짐	-7672
▁똑같이	-7673
▁똑똑해	-7674
▁리액션	-7675
▁마셔요	-7676
▁마시기	-7677
▁마음껏	-7678
▁마주쳤	-7679
▁만나실	-7680
▁만났을	-7681
▁만들면	-7682
▁만들죠	-7683
▁많겠지	-7684
▁많지만	-7685
▁말이죠	-7686
▁말투는	-7687
▁말하면	-7688
▁말할까	-7689
▁맘같지	-7690
▁맛난거	-7691
▁머리로	-7692
▁먹기로	-7693
▁먹으러	-7694
▁멘탈이	-7695
▁면접만	-7696
▁모두를	-7697
▁모으는	-7698
▁모처럼	-7699
▁목걸이	-7700
▁목욕탕	-7701
▁몰라서	-7702
▁몰랐어	-7703
▁몸에서	-7704
▁못할까	-7705
▁무거운	-7706
▁무너진	-7707
▁무뎌질	-7708
▁무릎에	-7709
▁무모한	-7710
▁무섭네	-7711
▁무섭다	-7712
▁문제에	-7713
▁묻어두	-7714
▁물가가	-7715
▁물질이	-7716
▁뭐하냐	-7717
▁뭘까요	-7718
▁뭘하면	-7719
▁미련만	-7720
▁미련한	-7721
▁믿기지	-7722
▁바꾸는	-7723
▁바꿔야	-7724
▁바꿨어	-7725
▁바뀌어	-7726
▁바나나	-7727
▁바람둥	-7728
▁바람피	-7729
▁반대로	-7730
▁반에서	-7731
▁받았던	-7732
▁방법은	-7733
▁방식이	-7734
▁방학에	-7735
▁방학은	-7736
▁방해가	-7737
▁배불러	-7738
▁배워도	-7739
▁배터리	-7740
▁베란다	-7741
▁변덕이	-7742
▁변하고	-7743
▁별로임	-7744
▁별의별	-7745
▁보고만	-7746
▁보고파	-7747
▁보는건	-7748
▁보는데	-7749
▁보니까	-7750
▁보듬어	-7751
▁보시면	-7752
▁보이네	-7753
▁보인다	-7754
▁복잡할	-7755
▁본인이	-7756
▁볼때는	-7757
▁봐봐요	-7758
▁부리면	-7759
▁분명히	-7760
▁분에게	-7761
▁불가능	-7762
▁비겁한	-7763
▁비정상	-7764
▁빈자리	-7765
▁빌릴까	-7766
▁빠르게	-7767
▁빠져나	-7768
▁사겼어	-7769
▁사계절	-7770
▁사귀긴	-7771
▁사귀다	-7772
▁사라진	-7773
▁사람일	-7774
▁사랑만	-7775
▁사로잡	-7776
▁사실에	-7777
▁살거야	-7778
▁살아서	-7779
▁살아온	-7780
▁샀는데	-7781
▁상대는	-7782
▁상대에	-7783
▁상사병	-7784
▁상자를	-7785
▁상태인	-7786
▁상황에	-7787
▁상황일	-7788
▁색다른	-7789
▁생각지	-7790
▁생기길	-7791
▁서서히	-7792
▁선물해	-7793
▁선의의	-7794
▁선택의	-7795
▁설레고	-7796
▁성격도	-7797
▁성장을	-7798
▁세월이	-7799
▁소름돋	-7800
▁소모가	-7801
▁소비를	-7802
▁손수건	-7803
▁손으로	-7804
▁쇼핑몰	-7805
▁수천번	-7806
▁쉬면서	-7807
▁스릴있	-7808
▁슬프다	-7809
▁시간과	-7810
▁시작은	-7811
▁시작을	-7812
▁식었어	-7813
▁싫은데	-7814
▁싶다면	-7815
▁싶은게	-7816
▁싶지만	-7817
▁썸녀랑	-7818
▁썸으로	-7819
▁썸일까	-7820
▁씁니다	-7821
▁아니니	-7822
▁아니다	-7823
▁아무는	-7824
▁아무런	-7825
▁아무일	-7826
▁아이고	-7827
▁아파요	-7828
▁아프기	-7829
▁안되나	-7830
▁안보여	-7831
▁안오지	-7832
▁안하면	-7833
▁안해줘	-7834
▁않았을	-7835
▁알게되	-7836
▁알려면	-7837
▁알아가	-7838
▁알아야	-7839
▁애교가	-7840
▁약간의	-7841
▁얘기해	-7842
▁어디가	-7843
▁어렵지	-7844
▁어색한	-7845
▁어색해	-7846
▁어이가	-7847
▁얼떨떨	-7848
▁없다는	-7849
▁없대요	-7850
▁여기서	-7851
▁여지를	-7852
▁여행지	-7853
▁역시나	-7854
▁연습해	-7855
▁연애도	-7856
▁연애인	-7857
▁연인이	-7858
▁열까지	-7859
▁영원히	-7860
▁영향을	-7861
▁영화가	-7862
▁영화를	-7863
▁예쁘다	-7864
▁예쁜데	-7865
▁예의를	-7866
▁오늘로	-7867
▁오래갈	-7868
▁오르네	-7869
▁오지랖	-7870
▁온다고	-7871
▁올랐어	-7872
▁와닿지	-7873
▁왜이리	-7874
▁외국어	-7875
▁외로움	-7876
▁우산을	-7877
▁우울증	-7878
▁우울한	-7879
▁운동은	-7880
▁운동화	-7881
▁울적한	-7882
▁울적해	-7883
▁웃는게	-7884
▁웃으면	-7885
▁원망은	-7886
▁원하지	-7887
▁월급을	-7888
▁유학을	-7889
▁의도는	-7890
▁의심이	-7891
▁이김에	-7892
▁이대로	-7893
▁이러다	-7894
▁이러면	-7895
▁이럴까	-7896
▁이번달	-7897
▁이번엔	-7898
▁이별하	-7899
▁이사람	-7900
▁이상의	-7901
▁이어가	-7902
▁이해는	-7903
▁이혼을	-7904
▁인고의	-7905
▁인연에	-7906
▁일부로	-7907
▁입니다	-7908
▁입을까	-7909
▁입장을	-7910
▁있도록	-7911
▁있었던	-7912
▁있음을	-7913
▁잊기가	-7914
▁잊는게	-7915
▁잊혀진	-7916
▁자극이	-7917
▁자동차	-7918
▁자리가	-7919
▁자유를	-7920
▁자존심	-7921
▁자체를	-7922
▁작아지	-7923
▁잔소리	-7924
▁잘되고	-7925
▁잘못은	-7926
▁잘생겨	-7927
▁잘자요	-7928
▁잘하게	-7929
▁잘하니	-7930
▁잘할까	-7931
▁잡념을	-7932
▁잡았어	-7933
▁장점을	-7934
▁재미없	-7935
▁재설계	-7936
▁재채기	-7937
▁적어도	-7938
▁적응이	-7939
▁전기가	-7940
▁전까지	-7941
▁전부는	-7942
▁전에는	-7943
▁전으로	-7944
▁전학가	-7945
▁전화는	-7946
▁정답을	-7947
▁정답이	-7948
▁정도에	-7949
▁정리되	-7950
▁정리에	-7951
▁정성이	-7952
▁정신과	-7953
▁정신병	-7954
▁정신적	-7955
▁정하고	-7956
▁정확히	-7957
▁조급해	-7958
▁조언이	-7959
▁조용히	-7960
▁종교를	-7961
▁좋다고	-7962
▁좋더라	-7963
▁좋아져	-7964
▁좋아진	-7965
▁좋으니	-7966
▁좋은지	-7967
▁주려고	-7968
▁주름살	-7969
▁주변의	-7970
▁주인공	-7971
▁죽겠다	-7972
▁죽겠어	-7973
▁죽어도	-7974
▁죽을거	-7975
▁줄임말	-7976
▁중간에	-7977
▁중고로	-7978
▁줬으면	-7979
▁지긋지	-7980
▁지나고	-7981
▁지내요	-7982
▁지워질	-7983
▁지쳐요	-7984
▁지쳤어	-7985
▁지치네	-7986
▁직장인	-7987
▁진급할	-7988
▁진통제	-7989
▁질투가	-7990
▁질투를	-7991
▁집까지	-7992
▁짜증남	-7993
▁짝남과	-7994
▁짝남은	-7995
▁짝녀와	-7996
▁찍었네	-7997
▁차단도	-7998
▁차별이	-7999
▁차이인	-8000
▁착각이	-8001
▁참겠어	-8002
▁참아야	-8003
▁창피해	-8004
▁책임질	-8005
▁처음엔	-8006
▁처음이	-8007
▁첫이별	-8008
▁청소는	-8009
▁청소를	-8010
▁축복과	-8011
▁축하해	-8012
▁취직할	-8013
▁취해서	-8014
▁친척들	-8015
▁카톡할	-8016
▁컴터가	-8017
▁클럽을	-8018
▁탓하지	-8019
▁티나나	-8020
▁페북을	-8021
▁포근한	-8022
▁풀렸길	-8023
▁피시방	-8024
▁피하고	-8025
▁필요가	-8026
▁필요도	-8027
▁하겠죠	-8028
▁하기로	-8029
▁하는거	-8030
▁하늘이	-8031
▁하라는	-8032
▁하려면	-8033
▁하루일	-8034
▁하시고	-8035
▁하지마	-8036
▁하지요	-8037
▁학교에	-8038
▁한달반	-8039
▁한달째	-8040
▁한번만	-8041
▁한순간	-8042
▁한없이	-8043
▁한켠에	-8044
▁할게요	-8045
▁할수록	-8046
▁함께면	-8047
▁해내고	-8048
▁해주면	-8049
▁했나봐	-8050
▁했네요	-8051
▁했는지	-8052
▁했더니	-8053
▁행동할	-8054
▁행복이	-8055
▁향수가	-8056
▁허상일	-8057
▁허전할	-8058
▁헷갈려	-8059
▁호르몬	-8060
▁확률이	-8061
▁후배가	-8062
▁후회없	-8063
▁휴유증	-8064
▁흑역사	-8065
▁흔적이	-8066
▁흘러갈	-8067
▁힘내요	-8068
▁힘들면	-8069
남자친구	-8070
더라구요	-8071
르니까요	-8072
만으로도	-8073
받으면서	-8074
보는것도	-8075
사람에게	-8076
이라면요	-8077
이었네요	-8078
이었는데	-8079
적이에요	-8080
중입니다	-8081
질뻔했어	-8082
하겠지만	-8083
하면서도	-8084
한다는데	-8085
해야하나	-8086
▁가고싶다	-8087
▁가까워질	-8088
▁가나봐요	-8089
▁가늠하지	-8090
▁가벼워질	-8091
▁가져가면	-8092
▁가져왔다	-8093
▁가족들과	-8094
▁가치관에	-8095
▁간단하게	-8096
▁간질간질	-8097
▁감성적이	-8098
▁거니까요	-8099
▁거두세요	-8100
▁거짓말이	-8101
▁걱정하면	-8102
▁건가봐요	-8103
▁겨울에는	-8104
▁견뎌봐요	-8105
▁결정하기	-8106
▁결정하는	-8107
▁결혼이나	-8108
▁결혼한지	-8109
▁계산적인	-8110
▁고마워요	-8111
▁고맙다고	-8112
▁고백해야	-8113
▁고백했다	-8114
▁공부하는	-8115
▁공부하러	-8116
▁공부할까	-8117
▁괜찮아지	-8118
▁궁금증을	-8119
▁궁금하면	-8120
▁궁금한게	-8121
▁그것만큼	-8122
▁그러니까	-8123
▁그럴까요	-8124
▁그럴수도	-8125
▁그리움을	-8126
▁그리움이	-8127
▁그분에게	-8128
▁그사람이	-8129
▁기다려야	-8130
▁기다리게	-8131
▁기대치가	-8132
▁길러볼까	-8133
▁까먹었어	-8134
▁깎아야지	-8135
▁깨달음이	-8136
▁끝일지도	-8137
▁나겠어요	-8138
▁나누는게	-8139
▁나아지길	-8140
▁나에게도	-8141
▁나오라고	-8142
▁나오세요	-8143
▁날이에요	-8144
▁남자애랑	-8145
▁내려놓고	-8146
▁내리는게	-8147
▁냉장고에	-8148
▁너덜너덜	-8149
▁너무하네	-8150
▁노력해도	-8151
▁누구보다	-8152
▁누구한테	-8153
▁느낀다면	-8154
▁느려졌어	-8155
▁다가가도	-8156
▁다가오고	-8157
▁다되가네	-8158
▁달리세요	-8159
▁답답하다	-8160
▁답답해서	-8161
▁당연해요	-8162
▁대리효도	-8163
▁데이트는	-8164
▁데이트할	-8165
▁도와줘야	-8166
▁돌아가는	-8167
▁돌아오길	-8168
▁돌아오는	-8169
▁돌아오지	-8170
▁돌아올까	-8171
▁동생이랑	-8172
▁동생인데	-8173
▁됐습니다	-8174
▁되어가길	-8175
▁되어가네	-8176
▁되었는지	-8177
▁두고두고	-8178
▁드는걸로	-8179
▁들어오면	-8180
▁따끔하게	-8181
▁마음가는	-8182
▁마음에게	-8183
▁마음인지	-8184
▁마주치면	-8185
▁마주치지	-8186
▁마지막을	-8187
▁마지막이	-8188
▁만나기만	-8189
▁만나자는	-8190
▁말이예요	-8191
▁말하는게	-8192
▁말해보는	-8193
▁말해야지	-8194
▁맞나봐요	-8195
▁머릿속이	-8196
▁멋있네요	-8197
▁멋지네요	-8198
▁모르겠다	-8199
▁모습으로	-8200
▁몰랐어요	-8201
▁못하는데	-8202
▁못했군요	-8203
▁무너졌어	-8204
▁무뎌지는	-8205
▁문득문득	-8206
▁물리적인	-8207
▁뭐하냐고	-8208
▁뭐하는지	-8209
▁미련없이	-8210
▁미소짓게	-8211
▁미안하대	-8212
▁미화되기	-8213
▁믿었는데	-8214
▁바꾸세요	-8215
▁바꿔볼까	-8216
▁바꿔야지	-8217
▁바디로션	-8218
▁바디워시	-8219
▁바라는게	-8220
▁바란다면	-8221
▁바보같이	-8222
▁반대래요	-8223
▁반복되는	-8224
▁방법이죠	-8225
▁배고파서	-8226
▁배려해야	-8227
▁배우세요	-8228
▁배우자가	-8229
▁배워가는	-8230
▁배워보고	-8231
▁배워볼까	-8232
▁버려야지	-8233
▁베터리가	-8234
▁변해가는	-8235
▁별로네요	-8236
▁보내세요	-8237
▁보냈으니	-8238
▁복잡하게	-8239
▁봐보세요	-8240
▁봐주세요	-8241
▁봤습니다	-8242
▁부모님께	-8243
▁부정적인	-8244
▁부족한가	-8245
▁분명하게	-8246
▁분위기가	-8247
▁브랜드가	-8248
▁비슷하죠	-8249
▁비오는날	-8250
▁비트코인	-8251
▁비혼주의	-8252
▁사귀는데	-8253
▁사귀세요	-8254
▁사귀자고	-8255
▁사귀자는	-8256
▁사람만의	-8257
▁사랑받는	-8258
▁사랑보다	-8259
▁사랑에도	-8260
▁사랑하게	-8261
▁사랑해줄	-8262
▁사랑했어	-8263
▁삭제하는	-8264
▁살고싶어	-8265
▁살아가는	-8266
▁살아야죠	-8267
▁살았는데	-8268
▁상관없이	-8269
▁상대방은	-8270
▁상처받게	-8271
▁생각없이	-8272
▁생각일까	-8273
▁생각지도	-8274
▁생각처럼	-8275
▁생각했던	-8276
▁생일선물	-8277
▁선물해도	-8278
▁선택으로	-8279
▁세상이죠	-8280
▁속박에서	-8281
▁손가락이	-8282
▁솔직하고	-8283
▁쉬어가는	-8284
▁스스로를	-8285
▁스타일에	-8286
▁시간낭비	-8287
▁시간인데	-8288
▁시골에서	-8289
▁시끄러워	-8290
▁시어머니	-8291
▁시작하는	-8292
▁시키세요	-8293
▁식단조절	-8294
▁신경쓰인	-8295
▁실망하지	-8296
▁실용적인	-8297
▁심심한데	-8298
▁싶나봐요	-8299
▁썸인가요	-8300
▁아날로그	-8301
▁아니겠지	-8302
▁아니었어	-8303
▁아무말도	-8304
▁아침마다	-8305
▁아파하고	-8306
▁아프지만	-8307
▁안되겠죠	-8308
▁않습니다	-8309
▁않았네요	-8310
▁않았다면	-8311
▁알겠어서	-8312
▁알바생이	-8313
▁알아가는	-8314
▁애완동물	-8315
▁얘기하지	-8316
▁어디가지	-8317
▁어디에서	-8318
▁어린이집	-8319
▁어울릴까	-8320
▁어장인거	-8321
▁언제부터	-8322
▁얼굴보고	-8323
▁없습니다	-8324
▁없으면서	-8325
▁여우같은	-8326
▁여유롭게	-8327
▁여자인데	-8328
▁여친이랑	-8329
▁여행가고	-8330
▁연락오네	-8331
▁연습하고	-8332
▁연애상담	-8333
▁연애할때	-8334
▁연예인도	-8335
▁영화보고	-8336
▁영화보러	-8337
▁예상하지	-8338
▁오랜연애	-8339
▁외롭다고	-8340
▁웬수네요	-8341
▁웬수예요	-8342
▁의미일까	-8343
▁의심하지	-8344
▁의지해도	-8345
▁이겨내고	-8346
▁이뤄지지	-8347
▁이별이든	-8348
▁이별하면	-8349
▁이사하는	-8350
▁이상한가	-8351
▁이상형을	-8352
▁이야기는	-8353
▁이야기할	-8354
▁이용하는	-8355
▁이제부터	-8356
▁이해해요	-8357
▁인기있는	-8358
▁인연이죠	-8359
▁인정하는	-8360
▁일상으로	-8361
▁일어나야	-8362
▁일요일에	-8363
▁일이라도	-8364
▁일주일이	-8365
▁있었어요	-8366
▁자신만의	-8367
▁자야겠다	-8368
▁자존심을	-8369
▁잘되니까	-8370
▁잘해주면	-8371
▁장난인지	-8372
▁재미있는	-8373
▁쟁취하는	-8374
▁적극적인	-8375
▁전화해도	-8376
▁접촉하는	-8377
▁정리되길	-8378
▁정리하게	-8379
▁정리하길	-8380
▁제정신이	-8381
▁조급하게	-8382
▁종지부를	-8383
▁좋아졌어	-8384
▁좋아한대	-8385
▁좋을지도	-8386
▁주말이네	-8387
▁주말인데	-8388
▁지겨워진	-8389
▁지나가는	-8390
▁지났는데	-8391
▁지났어요	-8392
▁진지하게	-8393
▁집착하게	-8394
▁짝사랑만	-8395
▁차단하고	-8396
▁차례예요	-8397
▁차분하고	-8398
▁찾아오네	-8399
▁척하는게	-8400
▁첫사랑을	-8401
▁첫인상은	-8402
▁최저임금	-8403
▁추운가요	-8404
▁취직이나	-8405
▁친구들은	-8406
▁친구에게	-8407
▁크기만큼	-8408
▁토닥토닥	-8409
▁통보하는	-8410
▁퇴근길에	-8411
▁판도라의	-8412
▁편안하게	-8413
▁편안해질	-8414
▁편하다는	-8415
▁표현하기	-8416
▁피곤해서	-8417
▁한달만에	-8418
▁해달라고	-8419
▁해야겠죠	-8420
▁해야하나	-8421
▁해주는게	-8422
▁해주면서	-8423
▁해줬으면	-8424
▁행복하면	-8425
▁허무하네	-8426
▁헤어지네	-8427
▁헤어짐도	-8428
▁혼인신고	-8429
▁확실하게	-8430
▁확인하고	-8431
▁후회안할	-8432
▁후회하면	-8433
▁훔쳐보는	-8434
▁흐지부지	-8435
▁흘리세요	-8436
▁희생양이	-8437
▁히스테리	-8438
▁힘들거라	-8439
▁힘들어도	-8440
▁힘이드네	-8441
버렸습니다	-8442
었나봅니다	-8443
이었나봐요	-8444
하고싶은데	-8445
하더라고요	-8446
하시겠어요	-8447
해졌나봐요	-8448
▁가능할까요	-8449
▁가져주세요	-8450
▁개강이라니	-8451
▁객관적으로	-8452
▁걱정마세요	-8453
▁것만으로도	-8454
▁고민이네요	-8455
▁고백받았어	-8456
▁고백할까요	-8457
▁괜찮습니다	-8458
▁구체적으로	-8459
▁귀엽겠네요	-8460
▁기대했는데	-8461
▁기도할게요	-8462
▁길러보세요	-8463
▁깊었나봐요	-8464
▁남사친이랑	-8465
▁남편이네요	-8466
▁느껴보세요	-8467
▁다되어가네	-8468
▁다를거예요	-8469
▁달려있겠죠	-8470
▁답답할거라	-8471
▁당신이네요	-8472
▁데이트하고	-8473
▁뒤숭숭하네	-8474
▁따져보세요	-8475
▁때문이겠죠	-8476
▁때문이에요	-8477
▁떨리겠어요	-8478
▁떨어뜨려서	-8479
▁마셔보세요	-8480
▁마음이네요	-8481
▁마음이에요	-8482
▁만들어봐요	-8483
▁모르겠지만	-8484
▁무덤덤해질	-8485
▁무시당하는	-8486
▁문제인가요	-8487
▁물어보거나	-8488
▁미안해하지	-8489
▁믿어주세요	-8490
▁반갑습니다	-8491
▁반했나봐요	-8492
▁변덕스럽게	-8493
▁보내보세요	-8494
▁복잡한가요	-8495
▁봉사활동도	-8496
▁부담스러울	-8497
▁분인가봐요	-8498
▁사람들한테	-8499
▁사람일지도	-8500
▁사랑이라고	-8501
▁사랑이야기	-8502
▁사랑하는지	-8503
▁사랑하세요	-8504
▁사랑합니다	-8505
▁사랑해주는	-8506
▁생각나네요	-8507
▁생각하면서	-8508
▁서운하다고	-8509
▁쉬어가세요	-8510
▁습관처럼은	-8511
▁시간이었을	-8512
▁시간이에요	-8513
▁신경쓰이는	-8514
▁심리일까요	-8515
▁썸이었으면	-8516
▁아껴주세요	-8517
▁아닐거예요	-8518
▁아파하다가	-8519
▁아프겠어요	-8520
▁안되나봐요	-8521
▁안좋아하는	-8522
▁애프터까지	-8523
▁없어졌으면	-8524
▁여사친이랑	-8525
▁영화관이나	-8526
▁왔나봅니다	-8527
▁유통기한이	-8528
▁유효기간이	-8529
▁의미부여는	-8530
▁이별이에요	-8531
▁이별하려고	-8532
▁이야기해요	-8533
▁익숙해지지	-8534
▁인사드리러	-8535
▁인생이에요	-8536
▁인연이라면	-8537
▁인정하세요	-8538
▁일어났더니	-8539
▁일이니까요	-8540
▁일주일이네	-8541
▁잊어버리는	-8542
▁잘하셨어요	-8543
▁장난스러운	-8544
▁재회했는데	-8545
▁전여친이랑	-8546
▁전여친한테	-8547
▁접어두셔요	-8548
▁정리하는데	-8549
▁정리하려고	-8550
▁제자리여도	-8551
▁조금이나마	-8552
▁존중합니다	-8553
▁좋겠습니다	-8554
▁좋아하니까	-8555
▁좋아할까요	-8556
▁좋았을텐데	-8557
▁주말이네요	-8558
▁준비되어야	-8559
▁준비하는데	-8560
▁중독인가봐	-8561
▁중요하겠죠	-8562
▁지긋지긋한	-8563
▁지켜주세요	-8564
▁진정하세요	-8565
▁질투난다고	-8566
▁짝사랑에서	-8567
▁찍어주세요	-8568
▁차단하세요	-8569
▁채워보세요	-8570
▁채워줄게요	-8571
▁챙겨주세요	-8572
▁최선이었을	-8573
▁추천드려요	-8574
▁크시겠어요	-8575
▁태어났을까	-8576
▁팔아보세요	-8577
▁표현하세요	-8578
▁필요한가요	-8579
▁하셨나봐요	-8580
▁한달이에요	-8581
▁행복했으면	-8582
▁헤어지자는	-8583
▁헤어진지도	-8584
▁헬스장에서	-8585
▁혼란스러워	-8586
▁흘렀나봐요	-8587
▁결혼적령기가	-8588
▁고민해보세요	-8589
▁그리운가봐요	-8590
▁기울여보세요	-8591
▁다독여주세요	-8592
▁대화해보세요	-8593
▁도와드릴게요	-8594
▁도전해보세요	-8595
▁드라이플라워	-8596
▁떨쳐버리세요	-8597
▁무덤덤해지는	-8598
▁받아들이세요	-8599
▁배려해보세요	-8600
▁복잡한가봐요	-8601
▁부족한가봐요	-8602
▁빠져나오세요	-8603
▁상의해보세요	-8604
▁새출발하세요	-8605
▁생각하나봐요	-8606
▁생각해봅니다	-8607
▁서운하겠어요	-8608
▁설득해보세요	-8609
▁신청해보세요	-8610
▁여기까지였을	-8611
▁연락해도될까	-8612
▁연락했습니다	-8613
▁의지해보세요	-8614
▁이야기하세요	-8615
▁이어나가는게	-8616
▁익숙해지지가	-8617
▁있었나봅니다	-8618
▁정리했습니다	-8619
▁제안해보세요	-8620
▁존중해줬으면	-8621
▁좋아하는데도	-8622
▁좋아했나봐요	-8623
▁중요하니까요	-8624
▁착잡하겠어요	-8625
▁칭찬해보세요	-8626
▁표현해주세요	-8627
▁피곤하겠어요	-8628
▁허전하겠어요	-8629
▁허전한가봐요	-8630
▁헛헛한가봐요	-8631
▁헤어지고나서	-8632
▁화이트데이에	-8633
▁힘들었을텐데	-8634
▁결혼적령기예요	-8635
▁그린라이트일까	-8636
▁당황하셨겠어요	-8637
▁들어맞나봅니다	-8638
▁마음정리하세요	-8639
▁받아들여보세요	-8640
▁사람이었나봐요	-8641
▁사랑이었나봐요	-8642
▁사랑하나봅니다	-8643
▁신경쓰이나봐요	-8644
▁사랑이었으니까요	-8645
CC	-8646
go	-8647
▁B	-8648
▁O	-8649
▁값	-8650
▁걍	-8651
▁괘	-8652
▁규	-8653
▁균	-8654
▁귤	-8655
▁깬	-8656
▁깼	-8657
▁꼴	-8658
▁꿩	-8659
▁낀	-8660
▁낌	-8661
▁넥	-8662
▁논	-8663
▁눅	-8664
▁닥	-8665
▁댄	-8666
▁댓	-8667
▁덧	-8668
▁덮	-8669
▁둬	-8670
▁듬	-8671
▁띵	-8672
▁를	-8673
▁범	-8674
▁뷔	-8675
▁빽	-8676
▁삔	-8677
▁섞	-8678
▁섹	-8679
▁솜	-8680
▁송	-8681
▁쌈	-8682
▁썩	-8683
▁압	-8684
▁줬	-8685
▁쩌	-8686
▁촉	-8687
▁쿠	-8688
▁탐	-8689
▁팬	-8690
▁펑	-8691
▁홀	-8692
▁힌	-8693
가나	-8694
가운	-8695
가입	-8696
가짐	-8697
간당	-8698
간에	-8699
▁깐	-8700
▁닭	-8701
▁롤	-8702
감기	-8703
감정	-8704
감한	-8705
값을	-8706
값이	-8707
강차	-8708
갖지	-8709
같네	-8710
같다	-8711
거란	-8712
거로	-8713
걸리	-8714
검진	-8715
것에	-8716
게를	-8717
게탕	-8718
겟어	-8719
겟죠	-8720
결이	-8721
경우	-8722
고는	-8723
고문	-8724
고민	-8725
곡에	-8726
곡차	-8727
곤증	-8728
골이	-8729
과의	-8730
과적	-8731
관념	-8732
관에	-8733
구가	-8734
구마	-8735
구만	-8736
구죠	-8737
구쳐	-8738
국수	-8739
궁무	-8740
권이	-8741
그란	-8742
그래	-8743
그인	-8744
근무	-8745
금도	-8746
금통	-8747
기견	-8748
기네	-8749
기다	-8750
기라	-8751
기름	-8752
기면	-8753
기운	-8754
기자	-8755
기정	-8756
기찬	-8757
긴건	-8758
긴지	-8759
길게	-8760
깃만	-8761
까옷	-8762
깍째	-8763
꺼비	-8764
꼬리	-8765
꽂이	-8766
꾸난	-8767
꿀해	-8768
끝이	-8769
나긴	-8770
나보	-8771
나쁘	-8772
나쁜	-8773
나올	-8774
낫네	-8775
내기	-8776
널을	-8777
넛오	-8778
년여	-8779
노력	-8780
놈들	-8781
눅해	-8782
눴길	-8783
는것	-8784
늦게	-8785
니즘	-8786
니티	-8787
다네	-8788
다녀	-8789
다시	-8790
단은	-8791
달까	-8792
달된	-8793
달반	-8794
달할	-8795
담길	-8796
당을	-8797
당황	-8798
대사	-8799
▁빙	-8800
▁빡	-8801
▁뺏	-8802
▁샐	-8803
▁섣	-8804
▁숏	-8805
거다	-8806
견례	-8807
댓말	-8808
던게	-8809
던곳	-8810
던데	-8811
덜덜	-8812
데기	-8813
도염	-8814
돌림	-8815
동생	-8816
동을	-8817
돼야	-8818
되게	-8819
되고	-8820
되실	-8821
되어	-8822
된거	-8823
두통	-8824
둥해	-8825
뒹글	-8826
드리	-8827
들로	-8828
들만	-8829
들요	-8830
듯할	-8831
디게	-8832
디오	-8833
뚝뚝	-8834
띠를	-8835
라구	-8836
라뇨	-8837
라를	-8838
람을	-8839
랭이	-8840
량을	-8841
러니	-8842
러드	-8843
러운	-8844
런치	-8845
럴까	-8846
럽을	-8847
레질	-8848
려야	-8849
력소	-8850
례품	-8851
례허	-8852
록금	-8853
록초	-8854
론가	-8855
롭지	-8856
료를	-8857
루즈	-8858
루투	-8859
룽지	-8860
류성	-8861
르륵	-8862
르쳐	-8863
를까	-8864
리나	-8865
리다	-8866
리두	-8867
리래	-8868
리로	-8869
리마	-8870
리며	-8871
림도	-8872
릿빛	-8873
마려	-8874
마시	-8875
마음	-8876
마저	-8877
많은	-8878
말자	-8879
망한	-8880
매가	-8881
맨날	-8882
머코	-8883
먼이	-8884
메라	-8885
면과	-8886
면에	-8887
모호	-8888
목을	-8889
몸이	-8890
몸일	-8891
무슨	-8892
문서	-8893
문제	-8894
물도	-8895
물이	-8896
미리	-8897
미팅	-8898
밖의	-8899
▁켠	-8900
▁텁	-8901
▁툭	-8902
▁풍	-8903
동진	-8904
명빨	-8905
박씨	-8906
반에	-8907
받쳐	-8908
밥통	-8909
방안	-8910
방은	-8911
방져	-8912
방학	-8913
방향	-8914
밭길	-8915
배를	-8916
배정	-8917
배추	-8918
백번	-8919
뱃돈	-8920
버는	-8921
벅스	-8922
번째	-8923
벨이	-8924
보길	-8925
보까	-8926
보단	-8927
보지	-8928
볶음	-8929
본적	-8930
볼께	-8931
봉지	-8932
봤자	-8933
부려	-8934
부름	-8935
부분	-8936
부탁	-8937
분만	-8938
분씩	-8939
분크	-8940
붓고	-8941
브네	-8942
블러	-8943
비스	-8944
비에	-8945
빈과	-8946
빌려	-8947
빼고	-8948
사고	-8949
사빠	-8950
상실	-8951
상화	-8952
새가	-8953
새끼	-8954
생에	-8955
서는	-8956
서를	-8957
서서	-8958
서클	-8959
선한	-8960
설팅	-8961
셔도	-8962
션은	-8963
소연	-8964
손잡	-8965
수궁	-8966
수로	-8967
수리	-8968
수의	-8969
수한	-8970
스가	-8971
스런	-8972
스터	-8973
슬려	-8974
습기	-8975
시작	-8976
시킬	-8977
식장	-8978
싫어	-8979
심리	-8980
싶고	-8981
싶지	-8982
싹한	-8983
씨가	-8984
씨방	-8985
아플	-8986
안돼	-8987
안상	-8988
않은	-8989
야돼	-8990
야를	-8991
야한	-8992
양지	-8993
어싱	-8994
어오	-8995
어져	-8996
없죠	-8997
었대	-8998
여다	-8999
여둔	-9000
열다	-9001
였길	-9002
예보	-9003
오늘	-9004
오르	-9005
오톡	-9006
온대	-9007
올게	-9008
올랐	-9009
옴을	-9010
와야	-9011
외비	-9012
용에	-9013
용이	-9014
용증	-9015
우길	-9016
우선	-9017
우울	-9018
울때	-9019
웃풋	-9020
워크	-9021
월의	-9022
웠길	-9023
육이	-9024
율주	-9025
으실	-9026
을거	-9027
을수	-9028
음만	-9029
의끝	-9030
의해	-9031
이게	-9032
이기	-9033
이냐	-9034
이란	-9035
이에	-9036
이한	-9037
인건	-9038
인걸	-9039
인배	-9040
인사	-9041
인은	-9042
인척	-9043
일꺼	-9044
일로	-9045
일링	-9046
일을	-9047
일지	-9048
읽씹	-9049
임머	-9050
있게	-9051
있네	-9052
있다	-9053
있죠	-9054
잊혀	-9055
자격	-9056
자아	-9057
작용	-9058
잔데	-9059
잘라	-9060
잡고	-9061
잡는	-9062
장애	-9063
장판	-9064
재가	-9065
저것	-9066
저나	-9067
저트	-9068
적을	-9069
적추	-9070
적한	-9071
전과	-9072
전순	-9073
전의	-9074
전이	-9075
전한	-9076
절염	-9077
절할	-9078
정말	-9079
제차	-9080
져트	-9081
졌다	-9082
조를	-9083
조리	-9084
종료	-9085
죄지	-9086
주긴	-9087
주네	-9088
주를	-9089
주시	-9090
주정	-9091
주차	-9092
준것	-9093
줌마	-9094
중을	-9095
증금	-9096
증이	-9097
지망	-9098
직한	-9099
질러	-9100
집에	-9101
징글	-9102
쪽이	-9103
찌개	-9104
차단	-9105
차로	-9106
차이	-9107
착이	-9108
찬하	-9109
찰에	-9110
처녀	-9111
척해	-9112
철과	-9113
청약	-9114
쳐올	-9115
쳐요	-9116
추는	-9117
추위	-9118
출할	-9119
취를	-9120
취제	-9121
츠러	-9122
치길	-9123
치죠	-9124
칠까	-9125
카롱	-9126
커페	-9127
커풀	-9128
켰어	-9129
클링	-9130
키는	-9131
키니	-9132
키우	-9133
타기	-9134
타면	-9135
타민	-9136
타이	-9137
탈때	-9138
탈출	-9139
태솔	-9140
턴을	-9141
테크	-9142
토닉	-9143
통약	-9144
투리	-9145
틀어	-9146
틈이	-9147
판의	-9148
팔며	-9149
패딩	-9150
편지	-9151
폭력	-9152
표시	-9153
푸려	-9154
풀이	-9155
프다	-9156
프로	-9157
피성	-9158
피스	-9159
하구	-9160
하내	-9161
하냐	-9162
하든	-9163
하를	-9164
학생	-9165
할땐	-9166
합성	-9167
해놓	-9168
해당	-9169
햇다	-9170
했대	-9171
향이	-9172
험실	-9173
호팬	-9174
화식	-9175
확보	-9176
후에	-9177
휴가	-9178
히지	-9179
~~~	-9180
▁14	-9181
▁CC	-9182
▁SD	-9183
▁가네	-9184
▁가며	-9185
▁가봐	-9186
▁가사	-9187
▁가재	-9188
▁가죠	-9189
▁가출	-9190
▁가혹	-9191
▁간에	-9192
▁간지	-9193
▁갈구	-9194
▁강림	-9195
▁갖는	-9196
▁같죠	-9197
▁거래	-9198
▁거릴	-9199
▁거창	-9200
▁건네	-9201
▁걷기	-9202
▁걸렸	-9203
▁것과	-9204
▁겪은	-9205
▁견딜	-9206
▁고비	-9207
▁고시	-9208
▁고작	-9209
▁고파	-9210
▁공채	-9211
▁교통	-9212
▁교환	-9213
▁구걸	-9214
▁귀차	-9215
▁그곳	-9216
▁그놈	-9217
▁그후	-9218
▁근무	-9219
▁근질	-9220
▁근황	-9221
▁금물	-9222
▁기계	-9223
▁기부	-9224
▁기뻐	-9225
▁기쁜	-9226
▁기우	-9227
▁기적	-9228
▁기차	-9229
▁기초	-9230
▁기특	-9231
▁기한	-9232
▁기획	-9233
▁깊이	-9234
▁깜깜	-9235
▁깨질	-9236
▁꾸고	-9237
▁꿈도	-9238
▁끊겼	-9239
▁나갈	-9240
▁나감	-9241
▁나길	-9242
▁나로	-9243
▁나름	-9244
▁나쁨	-9245
▁나에	-9246
▁나옴	-9247
▁난처	-9248
▁날은	-9249
▁낫고	-9250
▁낫다	-9251
▁낫지	-9252
▁내길	-9253
▁내도	-9254
▁내릴	-9255
▁내장	-9256
▁너그	-9257
▁너란	-9258
▁너만	-9259
▁넓고	-9260
▁노답	-9261
▁놀라	-9262
▁놀려	-9263
▁높이	-9264
▁누나	-9265
▁눈빛	-9266
▁눕지	-9267
▁늦기	-9268
▁다그	-9269
▁다신	-9270
▁다운	-9271
▁다크	-9272
▁다한	-9273
▁단어	-9274
▁단지	-9275
▁단짠	-9276
▁닫고	-9277
▁달이	-9278
▁담은	-9279
▁답변	-9280
▁답인	-9281
▁당구	-9282
▁당함	-9283
▁대빵	-9284
▁덕질	-9285
▁덜어	-9286
▁데에	-9287
▁독특	-9288
▁돋을	-9289
▁돌릴	-9290
▁돌봐	-9291
▁동상	-9292
▁동의	-9293
▁되긴	-9294
▁되요	-9295
▁두지	-9296
▁둘을	-9297
▁등이	-9298
▁디자	-9299
▁걸음	-9300
▁걸지	-9301
▁날인	-9302
▁낮춰	-9303
▁달랐	-9304
▁대만	-9305
▁대신	-9306
▁따위	-9307
▁때의	-9308
▁땜에	-9309
▁떠서	-9310
▁뜬금	-9311
▁마냥	-9312
▁마디	-9313
▁마찬	-9314
▁마트	-9315
▁막고	-9316
▁막상	-9317
▁만보	-9318
▁만의	-9319
▁만져	-9320
▁말들	-9321
▁말라	-9322
▁말려	-9323
▁말지	-9324
▁맘같	-9325
▁맘은	-9326
▁맞장	-9327
▁머물	-9328
▁먹게	-9329
▁먹다	-9330
▁먹든	-9331
▁먹방	-9332
▁먹죠	-9333
▁먼데	-9334
▁멍때	-9335
▁명언	-9336
▁모공	-9337
▁모양	-9338
▁모음	-9339
▁모의	-9340
▁모질	-9341
▁목도	-9342
▁몸도	-9343
▁몸은	-9344
▁못가	-9345
▁못나	-9346
▁못났	-9347
▁못내	-9348
▁못된	-9349
▁못믿	-9350
▁못받	-9351
▁무난	-9352
▁무료	-9353
▁무사	-9354
▁무죄	-9355
▁물론	-9356
▁뭐니	-9357
▁뭐였	-9358
▁바본	-9359
▁바이	-9360
▁반납	-9361
▁반이	-9362
▁받게	-9363
▁받니	-9364
▁발레	-9365
▁발을	-9366
▁밟힐	-9367
▁밤이	-9368
▁밥도	-9369
▁방심	-9370
▁방에	-9371
▁번의	-9372
▁법적	-9373
▁변기	-9374
▁보관	-9375
▁보답	-9376
▁보드	-9377
▁보장	-9378
▁보조	-9379
▁보죠	-9380
▁복근	-9381
▁복붙	-9382
▁복이	-9383
▁본거	-9384
▁볼매	-9385
▁봄에	-9386
▁봐야	-9387
▁부네	-9388
▁부는	-9389
▁부려	-9390
▁부르	-9391
▁부메	-9392
▁부산	-9393
▁부추	-9394
▁분다	-9395
▁불과	-9396
▁불륜	-9397
▁불쌍	-9398
▁붙어	-9399
▁감미	-9400
▁감이	-9401
▁골인	-9402
▁공급	-9403
▁공동	-9404
▁공연	-9405
▁공원	-9406
▁드러	-9407
▁드론	-9408
▁들켰	-9409
▁미쳐	-9410
▁본다	-9411
▁뷔페	-9412
▁비례	-9413
▁비비	-9414
▁비우	-9415
▁비추	-9416
▁빠진	-9417
▁빼면	-9418
▁뿌얘	-9419
▁사적	-9420
▁사줄	-9421
▁사지	-9422
▁사치	-9423
▁산다	-9424
▁산에	-9425
▁살게	-9426
▁살랑	-9427
▁살릴	-9428
▁살살	-9429
▁살았	-9430
▁삶도	-9431
▁새가	-9432
▁서글	-9433
▁선연	-9434
▁선천	-9435
▁세수	-9436
▁소가	-9437
▁소극	-9438
▁소맥	-9439
▁소모	-9440
▁소분	-9441
▁소풍	-9442
▁소홀	-9443
▁속는	-9444
▁속사	-9445
▁손님	-9446
▁손목	-9447
▁수강	-9448
▁수고	-9449
▁수만	-9450
▁수박	-9451
▁수순	-9452
▁쉬게	-9453
▁쉴만	-9454
▁스몰	-9455
▁시누	-9456
▁시린	-9457
▁시절	-9458
▁시청	-9459
▁시트	-9460
▁식초	-9461
▁실로	-9462
▁싫대	-9463
▁심란	-9464
▁심플	-9465
▁싶고	-9466
▁싶대	-9467
▁싶을	-9468
▁싸는	-9469
▁쌓아	-9470
▁써서	-9471
▁썸임	-9472
▁썼길	-9473
▁쓰여	-9474
▁쓸모	-9475
▁씨앗	-9476
▁씹어	-9477
▁씻어	-9478
▁아른	-9479
▁아시	-9480
▁아싸	-9481
▁아재	-9482
▁아휴	-9483
▁안날	-9484
▁안내	-9485
▁안열	-9486
▁안올	-9487
▁안이	-9488
▁안정	-9489
▁않나	-9490
▁않다	-9491
▁앞이	-9492
▁애써	-9493
▁얼어	-9494
▁없음	-9495
▁여부	-9496
▁연금	-9497
▁연기	-9498
▁연연	-9499
▁겠죠	-9500
▁계단	-9501
▁날까	-9502
▁날도	-9503
▁날들	-9504
▁날려	-9505
▁날카	-9506
▁도움	-9507
▁맞길	-9508
▁맞음	-9509
▁새는	-9510
▁서먹	-9511
▁서지	-9512
▁숨길	-9513
▁신용	-9514
▁신입	-9515
▁신행	-9516
▁실비	-9517
▁싫네	-9518
▁애국	-9519
▁애그	-9520
▁애니	-9521
▁애야	-9522
▁열쇠	-9523
▁영역	-9524
▁예랑	-9525
▁예를	-9526
▁오긴	-9527
▁오나	-9528
▁오니	-9529
▁오후	-9530
▁옷차	-9531
▁와라	-9532
▁와우	-9533
▁외박	-9534
▁외부	-9535
▁외식	-9536
▁욕먹	-9537
▁욕함	-9538
▁우는	-9539
▁우정	-9540
▁울면	-9541
▁울어	-9542
▁울컥	-9543
▁웃기	-9544
▁위층	-9545
▁이길	-9546
▁이룰	-9547
▁이른	-9548
▁이마	-9549
▁이발	-9550
▁이쁘	-9551
▁이웃	-9552
▁이자	-9553
▁이후	-9554
▁익숨	-9555
▁인강	-9556
▁인도	-9557
▁일까	-9558
▁일로	-9559
▁일요	-9560
▁일일	-9561
▁일정	-9562
▁읽고	-9563
▁읽을	-9564
▁잃을	-9565
▁입는	-9566
▁있니	-9567
▁있으	-9568
▁잊게	-9569
▁잊은	-9570
▁자게	-9571
▁자길	-9572
▁자니	-9573
▁자랑	-9574
▁자식	-9575
▁자야	-9576
▁작게	-9577
▁잘가	-9578
▁잘게	-9579
▁잘된	-9580
▁잘될	-9581
▁잘래	-9582
▁잘맞	-9583
▁잘참	-9584
▁잠겨	-9585
▁잠길	-9586
▁잠도	-9587
▁잠은	-9588
▁잡을	-9589
▁장만	-9590
▁장수	-9591
▁장애	-9592
▁재택	-9593
▁저렴	-9594
▁저요	-9595
▁저의	-9596
▁저축	-9597
▁전형	-9598
▁정글	-9599
▁놀지	-9600
▁달래	-9601
▁달리	-9602
▁달에	-9603
▁달째	-9604
▁따듯	-9605
▁막장	-9606
▁반항	-9607
▁배움	-9608
▁복합	-9609
▁뻔뻔	-9610
▁성급	-9611
▁성이	-9612
▁손재	-9613
▁숏컷	-9614
▁쉬울	-9615
▁쉬워	-9616
▁약초	-9617
▁요가	-9618
▁위를	-9619
▁위안	-9620
▁잤네	-9621
▁장이	-9622
▁정들	-9623
▁정량	-9624
▁정색	-9625
▁정치	-9626
▁제길	-9627
▁제로	-9628
▁조교	-9629
▁조깅	-9630
▁존경	-9631
▁주눅	-9632
▁주당	-9633
▁주소	-9634
▁주위	-9635
▁주절	-9636
▁주체	-9637
▁죽지	-9638
▁줄에	-9639
▁줄여	-9640
▁중소	-9641
▁중의	-9642
▁중이	-9643
▁지겹	-9644
▁지기	-9645
▁지끈	-9646
▁지름	-9647
▁지불	-9648
▁지상	-9649
▁지식	-9650
▁지침	-9651
▁진리	-9652
▁진출	-9653
▁질척	-9654
▁짐작	-9655
▁집사	-9656
▁쪼잔	-9657
▁쪽팔	-9658
▁쫄면	-9659
▁찌는	-9660
▁찌뿌	-9661
▁차도	-9662
▁차면	-9663
▁차임	-9664
▁차차	-9665
▁착용	-9666
▁착할	-9667
▁찰랑	-9668
▁참외	-9669
▁찾기	-9670
▁책만	-9671
▁책장	-9672
▁처방	-9673
▁천지	-9674
▁철은	-9675
▁첫키	-9676
▁청약	-9677
▁초과	-9678
▁초초	-9679
▁촬영	-9680
▁최소	-9681
▁추세	-9682
▁추울	-9683
▁축가	-9684
▁춥냐	-9685
▁취할	-9686
▁취해	-9687
▁치킨	-9688
▁친해	-9689
▁침착	-9690
▁카카	-9691
▁카풀	-9692
▁커요	-9693
▁코인	-9694
▁코코	-9695
▁코트	-9696
▁콜록	-9697
▁크는	-9698
▁클스	-9699
▁돌싱	-9700
▁듯이	-9701
▁맛도	-9702
▁몰아	-9703
▁문콕	-9704
▁발바	-9705
▁버린	-9706
▁심각	-9707
▁심장	-9708
▁심정	-9709
▁욕은	-9710
▁직설	-9711
▁키스	-9712
▁타게	-9713
▁타도	-9714
▁타로	-9715
▁타입	-9716
▁탄탄	-9717
▁태닝	-9718
▁태산	-9719
▁텁텁	-9720
▁텅비	-9721
▁파급	-9722
▁파마	-9723
▁파토	-9724
▁펑펑	-9725
▁펴고	-9726
▁편을	-9727
▁편하	-9728
▁편히	-9729
▁평안	-9730
▁평일	-9731
▁폰이	-9732
▁푸석	-9733
▁풀려	-9734
▁품에	-9735
▁피고	-9736
▁피맥	-9737
▁피지	-9738
▁하곤	-9739
▁하긴	-9740
▁하길	-9741
▁하냐	-9742
▁하실	-9743
▁하트	-9744
▁하품	-9745
▁한고	-9746
▁한복	-9747
▁한살	-9748
▁한순	-9749
▁한심	-9750
▁한자	-9751
▁한지	-9752
▁할때	-9753
▁할래	-9754
▁할일	-9755
▁해낸	-9756
▁해놨	-9757
▁해봐	-9758
▁해선	-9759
▁햇볕	-9760
▁향이	-9761
▁헤헤	-9762
▁현상	-9763
▁호구	-9764
▁호수	-9765
▁화났	-9766
▁화살	-9767
▁환해	-9768
▁후배	-9769
▁후아	-9770
▁휴우	-9771
▁흘려	-9772
▁힘을	-9773
가라는	-9774
가야지	-9775
가지구	-9776
간다고	-9777
거름이	-9778
거리가	-9779
거리고	-9780
걸지도	-9781
것만은	-9782
것인가	-9783
겼다고	-9784
곡차곡	-9785
곳으로	-9786
관념에	-9787
급이야	-9788
긴다는	-9789
끝이네	-9790
날텐데	-9791
냈는데	-9792
년동거	-9793
년인데	-9794
는데도	-9795
는데로	-9796
는데요	-9797
니즘을	-9798
다는거	-9799
▁곳과	-9800
▁떨면	-9801
▁명만	-9802
▁세금	-9803
▁세죠	-9804
▁세포	-9805
▁속을	-9806
▁숙면	-9807
▁실력	-9808
▁실컷	-9809
▁쓰네	-9810
▁쓰디	-9811
▁왔나	-9812
▁원두	-9813
▁원서	-9814
▁입맛	-9815
▁철이	-9816
▁취급	-9817
▁취뽀	-9818
▁취준	-9819
▁학식	-9820
▁흐를	-9821
다워야	-9822
닥까지	-9823
달에는	-9824
담하지	-9825
답이나	-9826
동실에	-9827
됐는데	-9828
되는게	-9829
들어가	-9830
디오를	-9831
때까지	-9832
라는데	-9833
렇게나	-9834
력소가	-9835
렸을까	-9836
료네요	-9837
루투스	-9838
리카드	-9839
모습만	-9840
모습을	-9841
물주물	-9842
뮤니티	-9843
버렸나	-9844
베리아	-9845
보는건	-9846
보는데	-9847
보니까	-9848
봤을때	-9849
부터의	-9850
분크림	-9851
생이면	-9852
셨어요	-9853
소에서	-9854
속으로	-9855
스트나	-9856
시니까	-9857
싶어요	-9858
쓰는게	-9859
압에는	-9860
앞이죠	-9861
액형이	-9862
야할지	-9863
어가는	-9864
어야죠	-9865
어지고	-9866
언하는	-9867
었다고	-9868
에서는	-9869
였지만	-9870
오겠죠	-9871
와야지	-9872
와주지	-9873
웃풋이	-9874
워지고	-9875
웠으면	-9876
유하고	-9877
으려구	-9878
으키기	-9879
을까봐	-9880
이기가	-9881
이기도	-9882
이요법	-9883
이크업	-9884
인가를	-9885
인보다	-9886
인으로	-9887
일이야	-9888
일째네	-9889
있는데	-9890
자리에	-9891
잔하네	-9892
잼에게	-9893
적인데	-9894
졌겠죠	-9895
좋을까	-9896
죄에요	-9897
주가지	-9898
주는데	-9899
▁구경	-9900
▁구상	-9901
▁구질	-9902
▁놓침	-9903
▁뜻은	-9904
▁로망	-9905
▁맘도	-9906
▁멀미	-9907
▁발급	-9908
▁발등	-9909
▁분석	-9910
▁붙여	-9911
▁손을	-9912
▁슬슬	-9913
▁싸가	-9914
▁싸면	-9915
▁싸서	-9916
▁앞둔	-9917
▁약해	-9918
▁요긴	-9919
▁입소	-9920
▁장단	-9921
▁장사	-9922
▁짓만	-9923
▁짜지	-9924
▁커지	-9925
▁학과	-9926
▁학회	-9927
다니기	-9928
로부터	-9929
서부터	-9930
순위에	-9931
시켜야	-9932
주려고	-9933
중이야	-9934
중인데	-9935
지는듯	-9936
직이수	-9937
진해요	-9938
집에서	-9939
짓으로	-9940
처지는	-9941
컨트롤	-9942
케이스	-9943
코스터	-9944
탈취제	-9945
하게도	-9946
하기만	-9947
하나요	-9948
하더라	-9949
하시길	-9950
하지가	-9951
한만큼	-9952
할만한	-9953
할수록	-9954
할지도	-9955
해서도	-9956
해졌길	-9957
했다가	-9958
확하게	-9959
활용도	-9960
히더라	-9961
▁...	-9962
▁가는거	-9963
▁가라고	-9964
▁가방은	-9965
▁가보는	-9966
▁가볼까	-9967
▁가봤어	-9968
▁가슴을	-9969
▁각자가	-9970
▁간다고	-9971
▁간다면	-9972
▁간단한	-9973
▁감정소	-9974
▁같기도	-9975
▁같을까	-9976
▁같음을	-9977
▁같이도	-9978
▁개기름	-9979
▁개념만	-9980
▁거부의	-9981
▁걱정일	-9982
▁건들이	-9983
▁건조한	-9984
▁걸어도	-9985
▁겁이나	-9986
▁것부터	-9987
▁게임할	-9988
▁겠네요	-9989
▁결심한	-9990
▁결정이	-9991
▁결혼도	-9992
▁결혼한	-9993
▁경제력	-9994
▁경찰에	-9995
▁계기를	-9996
▁고데기	-9997
▁고민과	-9998
▁고민돼	-9999
▁개야	-10000
▁과에	-10001
▁과제	-10002
▁과함	-10003
▁길에	-10004
▁깨는	-10005
▁깨서	-10006
▁단발	-10007
▁단수	-10008
▁딸까	-10009
▁번복	-10010
▁번은	-10011
▁별별	-10012
▁순진	-10013
▁유세	-10014
▁잡담	-10015
▁잡혀	-10016
▁질거	-10017
▁챙겼	-10018
▁챙기	-10019
▁처량	-10020
▁천일	-10021
▁호텔	-10022
각한데	-10023
들었어	-10024
수라도	-10025
조절이	-10026
▁결정난	-10027
▁고민만	-10028
▁고민은	-10029
▁고백도	-10030
▁고백해	-10031
▁고장이	-10032
▁곤두세	-10033
▁골라줘	-10034
▁곳이요	-10035
▁공감할	-10036
▁공부가	-10037
▁공부도	-10038
▁공부에	-10039
▁공부한	-10040
▁공적인	-10041
▁과거는	-10042
▁과거의	-10043
▁과에서	-10044
▁과외비	-10045
▁과해도	-10046
▁관리가	-10047
▁관리를	-10048
▁관절염	-10049
▁괜찮았	-10050
▁괴로운	-10051
▁괴롭혀	-10052
▁괴물이	-10053
▁교회에	-10054
▁구꺼비	-10055
▁구두로	-10056
▁구하셨	-10057
▁구해야	-10058
▁귀엽대	-10059
▁귀찮게	-10060
▁균형이	-10061
▁그때는	-10062
▁그랬을	-10063
▁그런건	-10064
▁그런게	-10065
▁그만큰	-10066
▁그분을	-10067
▁기나긴	-10068
▁기대도	-10069
▁기대돼	-10070
▁기대로	-10071
▁기대에	-10072
▁기분만	-10073
▁기분을	-10074
▁기억할	-10075
▁기운낼	-10076
▁긴장되	-10077
▁김치도	-10078
▁까먹어	-10079
▁깨닫게	-10080
▁깨지고	-10081
▁꼬르륵	-10082
▁꼬시지	-10083
▁꼰대가	-10084
▁꽃게탕	-10085
▁꽃꽂이	-10086
▁꾸는데	-10087
▁꾸준한	-10088
▁꿈같은	-10089
▁꿈이었	-10090
▁꿈처럼	-10091
▁꿨는데	-10092
▁꿨는지	-10093
▁끝나길	-10094
▁끝내긴	-10095
▁끝이보	-10096
▁끼세요	-10097
▁낌새가	-10098
▁나가고	-10099
▁개째	-10100
▁경과	-10101
▁경조	-10102
▁난다	-10103
▁넘을	-10104
▁멋을	-10105
▁볼링	-10106
▁붙는	-10107
▁손이	-10108
▁숨한	-10109
▁졌어	-10110
▁청강	-10111
▁친추	-10112
▁크네	-10113
▁헌팅	-10114
▁환경	-10115
는건가	-10116
스럽다	-10117
음이나	-10118
해보고	-10119
▁갑시다	-10120
▁꿈꾸던	-10121
▁나가도	-10122
▁나가요	-10123
▁나네요	-10124
▁나대로	-10125
▁나라를	-10126
▁나쁘게	-10127
▁나아요	-10128
▁나오지	-10129
▁나온거	-10130
▁나와야	-10131
▁나이를	-10132
▁난방이	-10133
▁날까지	-10134
▁날들이	-10135
▁날씨에	-10136
▁날이야	-10137
▁날인가	-10138
▁남겠죠	-10139
▁남동생	-10140
▁남보다	-10141
▁남았어	-10142
▁남이죠	-10143
▁남자로	-10144
▁남잔데	-10145
▁남친과	-10146
▁남친의	-10147
▁났는지	-10148
▁났으면	-10149
▁내거나	-10150
▁내냐구	-10151
▁내년이	-10152
▁내딛으	-10153
▁내려놔	-10154
▁내려올	-10155
▁내릴까	-10156
▁내봐요	-10157
▁내일의	-10158
▁너무힘	-10159
▁넘었어	-10160
▁노래들	-10161
▁노래로	-10162
▁노래요	-10163
▁노력이	-10164
▁노력해	-10165
▁놀까요	-10166
▁놀러가	-10167
▁놀리는	-10168
▁높겠죠	-10169
▁높으면	-10170
▁놓쳐서	-10171
▁놓쳤다	-10172
▁누구니	-10173
▁누구를	-10174
▁누룽지	-10175
▁눈사람	-10176
▁눈살이	-10177
▁눈에도	-10178
▁뉴스는	-10179
▁느낌을	-10180
▁늦어요	-10181
▁다가온	-10182
▁다같이	-10183
▁다녀와	-10184
▁다니고	-10185
▁다른걸	-10186
▁다음날	-10187
▁닥쳐올	-10188
▁단수가	-10189
▁단점을	-10190
▁달라져	-10191
▁달에는	-10192
▁답례품	-10193
▁답이야	-10194
▁답일까	-10195
▁당번을	-10196
▁당신과	-10197
▁당하고	-10198
▁당해요	-10199
▁금값	-10200
▁긴여	-10201
▁까봐	-10202
▁몇명	-10203
▁빡빡	-10204
▁빨라	-10205
▁뿐이	-10206
▁삶이	-10207
▁솔솔	-10208
▁식상	-10209
▁쌓는	-10210
▁온천	-10211
▁졸게	-10212
▁청구	-10213
▁태몽	-10214
▁티끌	-10215
▁티나	-10216
▁향한	-10217
달만에	-10218
보이네	-10219
사람을	-10220
▁가져도	-10221
▁가지를	-10222
▁건강은	-10223
▁격식은	-10224
▁공감을	-10225
▁귀찮네	-10226
▁그리웠	-10227
▁끝이네	-10228
▁나가서	-10229
▁나쁜데	-10230
▁날이네	-10231
▁눅눅해	-10232
▁당황할	-10233
▁대답이	-10234
▁대부분	-10235
▁대하고	-10236
▁대하면	-10237
▁대학교	-10238
▁대화도	-10239
▁대화한	-10240
▁더없이	-10241
▁데려가	-10242
▁도예요	-10243
▁도와준	-10244
▁도자기	-10245
▁도전을	-10246
▁돈보다	-10247
▁돌리고	-10248
▁돌아간	-10249
▁돌아섰	-10250
▁돌아온	-10251
▁동문서	-10252
▁동물원	-10253
▁동성을	-10254
▁동안의	-10255
▁됐나요	-10256
▁됐다고	-10257
▁되기가	-10258
▁되나요	-10259
▁되지요	-10260
▁된다는	-10261
▁둘만의	-10262
▁뒀네요	-10263
▁드네요	-10264
▁드시지	-10265
▁들겠지	-10266
▁들어야	-10267
▁들지만	-10268
▁등으로	-10269
▁디저트	-10270
▁따돌림	-10271
▁따르기	-10272
▁따지는	-10273
▁땅만큼	-10274
▁때라고	-10275
▁때리고	-10276
▁떠나요	-10277
▁떠나지	-10278
▁떠는거	-10279
▁떠세요	-10280
▁떠올라	-10281
▁떠올려	-10282
▁떨기는	-10283
▁떨리는	-10284
▁떨면서	-10285
▁떨어요	-10286
▁떨어진	-10287
▁뜨겁게	-10288
▁뜻밖의	-10289
▁로그인	-10290
▁리드를	-10291
▁마시러	-10292
▁마시며	-10293
▁마치길	-10294
▁만나보	-10295
▁만날땐	-10296
▁만남을	-10297
▁만남의	-10298
▁만들까	-10299
▁40	-10300
▁강박	-10301
▁꽃을	-10302
▁네가	-10303
▁듣니	-10304
▁듣지	-10305
▁면세	-10306
▁작별	-10307
▁짧을	-10308
▁초조	-10309
▁폭풍	-10310
버려요	-10311
소리가	-10312
하려구	-10313
▁가야죠	-10314
▁건조기	-10315
▁걸려요	-10316
▁고생이	-10317
▁꽃으로	-10318
▁남편을	-10319
▁내려요	-10320
▁되는줄	-10321
▁디져트	-10322
▁떨려요	-10323
▁만큼만	-10324
▁만하죠	-10325
▁많다고	-10326
▁많아도	-10327
▁말문이	-10328
▁말보다	-10329
▁말씀이	-10330
▁말씀해	-10331
▁말았네	-10332
▁말자고	-10333
▁말하기	-10334
▁말해봐	-10335
▁맘대로	-10336
▁맛없어	-10337
▁맛있고	-10338
▁맛있죠	-10339
▁망해도	-10340
▁맞겠지	-10341
▁맞다고	-10342
▁맞아서	-10343
▁맞았어	-10344
▁맞출까	-10345
▁매세요	-10346
▁맥주병	-10347
▁머리를	-10348
▁머릿결	-10349
▁먹고는	-10350
▁먹는게	-10351
▁먹어서	-10352
▁먹어요	-10353
▁먹었니	-10354
▁먹을게	-10355
▁먼저일	-10356
▁멋있게	-10357
▁멋있어	-10358
▁멋있죠	-10359
▁모기가	-10360
▁모두가	-10361
▁모르니	-10362
▁모르죠	-10363
▁모발이	-10364
▁모여요	-10365
▁목적은	-10366
▁목표가	-10367
▁몰랐던	-10368
▁못난거	-10369
▁못잊을	-10370
▁못자고	-10371
▁못하게	-10372
▁못하네	-10373
▁못하죠	-10374
▁무게를	-10375
▁무궁무	-10376
▁무뎌져	-10377
▁무뎌진	-10378
▁무뚝뚝	-10379
▁무리가	-10380
▁무서움	-10381
▁무섭죠	-10382
▁문자가	-10383
▁문자를	-10384
▁뭐부터	-10385
▁뭘해도	-10386
▁미련없	-10387
▁미화되	-10388
▁민감한	-10389
▁믿는데	-10390
▁밀당일	-10391
▁바꾸면	-10392
▁바다는	-10393
▁바람난	-10394
▁바람좀	-10395
▁바보는	-10396
▁바보지	-10397
▁바보짓	-10398
▁바쁘네	-10399
▁담담	-10400
▁뒤따	-10401
▁메인	-10402
▁병이	-10403
▁빌렸	-10404
▁삐져	-10405
▁양이	-10406
▁출국	-10407
▁출발	-10408
▁흔한	-10409
보이는	-10410
봐주는	-10411
어주는	-10412
해줘요	-10413
▁감기일	-10414
▁것같아	-10415
▁것이요	-10416
▁겠지요	-10417
▁고와야	-10418
▁구여친	-10419
▁극복한	-10420
▁끝나네	-10421
▁끝나서	-10422
▁나을가	-10423
▁냄새나	-10424
▁다녀야	-10425
▁마련의	-10426
▁몇시간	-10427
▁몇일째	-10428
▁바쁠때	-10429
▁바지가	-10430
▁반가울	-10431
▁반대가	-10432
▁반했어	-10433
▁받겠지	-10434
▁받아도	-10435
▁받아요	-10436
▁받아줄	-10437
▁받지도	-10438
▁발달된	-10439
▁밥이나	-10440
▁방들이	-10441
▁배에서	-10442
▁배우실	-10443
▁버렸다	-10444
▁버티지	-10445
▁벌수록	-10446
▁벌어요	-10447
▁베였어	-10448
▁변하니	-10449
▁변하면	-10450
▁변한것	-10451
▁보내실	-10452
▁보라고	-10453
▁보안상	-10454
▁보여도	-10455
▁보여드	-10456
▁보여서	-10457
▁복잡해	-10458
▁복제가	-10459
▁부담돼	-10460
▁부담을	-10461
▁부담이	-10462
▁부딪혀	-10463
▁부었어	-10464
▁부작용	-10465
▁북치기	-10466
▁분담을	-10467
▁분배를	-10468
▁분야를	-10469
▁분출할	-10470
▁불만이	-10471
▁불행을	-10472
▁붙잡을	-10473
▁블록체	-10474
▁비교돼	-10475
▁비밀로	-10476
▁비용은	-10477
▁비참한	-10478
▁비타민	-10479
▁비틀어	-10480
▁빌게요	-10481
▁빨리감	-10482
▁빵꾸난	-10483
▁뻔하다	-10484
▁뿌듯할	-10485
▁사과를	-10486
▁사귀게	-10487
▁사귄다	-10488
▁사귄지	-10489
▁사랑꾼	-10490
▁사야돼	-10491
▁사이도	-10492
▁사이라	-10493
▁사이트	-10494
▁사진에	-10495
▁사진이	-10496
▁사투리	-10497
▁산이네	-10498
▁살기가	-10499
▁골반	-10500
▁낙엽	-10501
▁높은	-10502
▁봤나	-10503
▁빼도	-10504
▁숨쉬	-10505
▁써야	-10506
▁접질	-10507
▁폰겜	-10508
▁향기	-10509
보기만	-10510
사이가	-10511
하려나	-10512
▁기회일	-10513
▁놀기만	-10514
▁놀아서	-10515
▁맞춰줄	-10516
▁미치네	-10517
▁미치지	-10518
▁보기만	-10519
▁봤으면	-10520
▁비밀이	-10521
▁비싸다	-10522
▁비싸죠	-10523
▁빼니까	-10524
▁사줄까	-10525
▁살려도	-10526
▁살려줘	-10527
▁살아도	-10528
▁상관이	-10529
▁상대와	-10530
▁상대의	-10531
▁상상은	-10532
▁상상을	-10533
▁상처준	-10534
▁상해요	-10535
▁샐러드	-10536
▁생각의	-10537
▁생겼대	-10538
▁생기죠	-10539
▁생기지	-10540
▁생생한	-10541
▁생활이	-10542
▁생활패	-10543
▁샤워를	-10544
▁서적을	-10545
▁선물할	-10546
▁설레게	-10547
▁설레면	-10548
▁설레발	-10549
▁설레서	-10550
▁설레지	-10551
▁성별은	-10552
▁성분이	-10553
▁성숙한	-10554
▁성향이	-10555
▁세다고	-10556
▁세상의	-10557
▁세우고	-10558
▁세탁소	-10559
▁센스가	-10560
▁소개해	-10561
▁소식에	-10562
▁소식을	-10563
▁소심한	-10564
▁소원이	-10565
▁소중히	-10566
▁속도가	-10567
▁속으로	-10568
▁손길이	-10569
▁손톱이	-10570
▁손해배	-10571
▁솔직히	-10572
▁쇼핑을	-10573
▁수도가	-10574
▁수십번	-10575
▁수없이	-10576
▁수영장	-10577
▁순간은	-10578
▁순간을	-10579
▁순간의	-10580
▁술기운	-10581
▁술이야	-10582
▁술자리	-10583
▁숨기는	-10584
▁쉬려고	-10585
▁쉬운게	-10586
▁쉬운데	-10587
▁쉽지는	-10588
▁슈퍼문	-10589
▁스키탈	-10590
▁스테끼	-10591
▁슬픔에	-10592
▁시간의	-10593
▁시간적	-10594
▁시럽을	-10595
▁시선이	-10596
▁시원할	-10597
▁시작과	-10598
▁시작도	-10599
▁독서	-10600
▁독학	-10601
▁삼재	-10602
▁삼주	-10603
▁특히	-10604
▁팀플	-10605
▁팔뚝	-10606
▁팔찌	-10607
백한다	-10608
스리스	-10609
▁겉모습	-10610
▁결단은	-10611
▁경우는	-10612
▁군대를	-10613
▁글자만	-10614
▁까먹고	-10615
▁꼬리가	-10616
▁독서와	-10617
▁두근두	-10618
▁뜻으로	-10619
▁먹을래	-10620
▁못해본	-10621
▁방심한	-10622
▁배려가	-10623
▁변한게	-10624
▁새치가	-10625
▁생기기	-10626
▁서운한	-10627
▁쇼핑은	-10628
▁쉬었다	-10629
▁스킨쉽	-10630
▁시작함	-10631
▁시켜줘	-10632
▁시키지	-10633
▁식비가	-10634
▁식어서	-10635
▁식으로	-10636
▁신기한	-10637
▁신을까	-10638
▁실력이	-10639
▁실망을	-10640
▁실수한	-10641
▁실행에	-10642
▁실험실	-10643
▁싫어할	-10644
▁싫어해	-10645
▁싫으면	-10646
▁싫지는	-10647
▁심하네	-10648
▁심하면	-10649
▁싶었던	-10650
▁싶은거	-10651
▁싸세요	-10652
▁싸움이	-10653
▁쌍커풀	-10654
▁쌓였어	-10655
▁썸부터	-10656
▁썸타다	-10657
▁쓰세요	-10658
▁쓰이네	-10659
▁쓰자고	-10660
▁아까운	-10661
▁아깝다	-10662
▁아니긴	-10663
▁아니셨	-10664
▁아닌가	-10665
▁아닌건	-10666
▁아들을	-10667
▁아련한	-10668
▁아세요	-10669
▁아쉬움	-10670
▁아이구	-10671
▁아이는	-10672
▁아이라	-10673
▁아이를	-10674
▁아침밥	-10675
▁아파서	-10676
▁아파트	-10677
▁아프면	-10678
▁아프죠	-10679
▁아픈데	-10680
▁악몽과	-10681
▁악몽을	-10682
▁악수를	-10683
▁안나와	-10684
▁안돼나	-10685
▁안되면	-10686
▁안되서	-10687
▁안아서	-10688
▁안주랑	-10689
▁안하기	-10690
▁안하려	-10691
▁안한다	-10692
▁안해서	-10693
▁않겠죠	-10694
▁않다고	-10695
▁않다면	-10696
▁않았기	-10697
▁않은데	-10698
▁알려주	-10699
▁났네	-10700
▁났어	-10701
▁줬어	-10702
감상이	-10703
합시다	-10704
해줬어	-10705
▁가리면	-10706
▁가치와	-10707
▁감사한	-10708
▁경향이	-10709
▁경험은	-10710
▁과정을	-10711
▁과정일	-10712
▁그랬지	-10713
▁기운을	-10714
▁깊었을	-10715
▁꺼지기	-10716
▁놀이터	-10717
▁다이렉	-10718
▁대놓고	-10719
▁대인배	-10720
▁맛집을	-10721
▁먹었다	-10722
▁무너짐	-10723
▁반장을	-10724
▁발전할	-10725
▁발표는	-10726
▁버려진	-10727
▁빌리면	-10728
▁사갈까	-10729
▁사실을	-10730
▁생긴거	-10731
▁쉬시길	-10732
▁신기해	-10733
▁싫은가	-10734
▁써놓고	-10735
▁안읽씹	-10736
▁알아내	-10737
▁알아요	-10738
▁알아주	-10739
▁알아줄	-10740
▁알지만	-10741
▁압니다	-10742
▁앞이나	-10743
▁애기가	-10744
▁애절한	-10745
▁애정이	-10746
▁액션은	-10747
▁야근이	-10748
▁약먹기	-10749
▁약이긴	-10750
▁양다리	-10751
▁양면과	-10752
▁양식을	-10753
▁얘기가	-10754
▁어디다	-10755
▁어디를	-10756
▁어떨때	-10757
▁어떻해	-10758
▁어른이	-10759
▁어울릴	-10760
▁어장을	-10761
▁어제가	-10762
▁어쩌죠	-10763
▁어플에	-10764
▁어플은	-10765
▁언니가	-10766
▁언어도	-10767
▁언제가	-10768
▁얼굴만	-10769
▁얼었어	-10770
▁엄마께	-10771
▁엄청나	-10772
▁없거나	-10773
▁없다가	-10774
▁없었어	-10775
▁없이도	-10776
▁여기는	-10777
▁여기만	-10778
▁여러번	-10779
▁여유는	-10780
▁여자들	-10781
▁여자야	-10782
▁여자에	-10783
▁여자의	-10784
▁여친을	-10785
▁여행이	-10786
▁연락과	-10787
▁연락올	-10788
▁연락하	-10789
▁연애끝	-10790
▁연애만	-10791
▁연애할	-10792
▁영상을	-10793
▁영화나	-10794
▁영화는	-10795
▁예감이	-10796
▁예민함	-10797
▁예뻐해	-10798
▁예식장	-10799
▁갚고	-10800
▁갚을	-10801
▁끄고	-10802
▁죄는	-10803
▁죄송	-10804
▁트인	-10805
▁트집	-10806
▁가까이	-10807
▁가벼움	-10808
▁결심이	-10809
▁그것은	-10810
▁끄세요	-10811
▁내리기	-10812
▁누군가	-10813
▁답장해	-10814
▁듭니다	-10815
▁딸기가	-10816
▁무섭고	-10817
▁미래의	-10818
▁받으시	-10819
▁방면에	-10820
▁비가오	-10821
▁비슷한	-10822
▁비슷해	-10823
▁사전도	-10824
▁사정을	-10825
▁속상한	-10826
▁속상할	-10827
▁수요일	-10828
▁신혼집	-10829
▁썼는데	-10830
▁썼다가	-10831
▁야근해	-10832
▁없었던	-10833
▁예의는	-10834
▁예측할	-10835
▁오나봐	-10836
▁오는데	-10837
▁오는지	-10838
▁오늘밤	-10839
▁오래걸	-10840
▁오래전	-10841
▁오랜만	-10842
▁오르고	-10843
▁오빠들	-10844
▁오빠랑	-10845
▁오지마	-10846
▁옥상에	-10847
▁온다면	-10848
▁온전한	-10849
▁올려봐	-10850
▁옵니다	-10851
▁완벽할	-10852
▁외모에	-10853
▁외제차	-10854
▁욕하는	-10855
▁욕했어	-10856
▁용서를	-10857
▁우리를	-10858
▁우리반	-10859
▁우리의	-10860
▁우연을	-10861
▁운명도	-10862
▁운명을	-10863
▁운명의	-10864
▁울었네	-10865
▁울었어	-10866
▁움츠러	-10867
▁원망과	-10868
▁월급만	-10869
▁웹툰이	-10870
▁위기야	-10871
▁위축된	-10872
▁위치가	-10873
▁위험할	-10874
▁유기견	-10875
▁유료로	-10876
▁유명한	-10877
▁음악을	-10878
▁음악이	-10879
▁응시는	-10880
▁응원해	-10881
▁의미는	-10882
▁의사가	-10883
▁의지할	-10884
▁이길이	-10885
▁이라고	-10886
▁이러고	-10887
▁이런게	-10888
▁이별과	-10889
▁이사가	-10890
▁이사갈	-10891
▁이상할	-10892
▁이시간	-10893
▁이용당	-10894
▁이용할	-10895
▁이용해	-10896
▁이치죠	-10897
▁이혼이	-10898
▁익숙해	-10899
▁걔도	-10900
▁걔랑	-10901
▁냐에	-10902
▁넣고	-10903
▁섭섭	-10904
▁쓴지	-10905
▁컴터	-10906
불가한	-10907
▁깨어진	-10908
▁나올까	-10909
▁나왔길	-10910
▁남았길	-10911
▁다치지	-10912
▁마다할	-10913
▁막말을	-10914
▁막말이	-10915
▁맛을거	-10916
▁멈추고	-10917
▁분명한	-10918
▁사회를	-10919
▁상태를	-10920
▁소문은	-10921
▁소문일	-10922
▁시계줄	-10923
▁신나게	-10924
▁쓴만큼	-10925
▁안전이	-10926
▁알았다	-10927
▁어린데	-10928
▁어장의	-10929
▁은근히	-10930
▁이남자	-10931
▁인내의	-10932
▁인복이	-10933
▁인사를	-10934
▁인상을	-10935
▁인연을	-10936
▁인연인	-10937
▁인정받	-10938
▁인정은	-10939
▁인형뽑	-10940
▁일기를	-10941
▁일상을	-10942
▁일시적	-10943
▁일어난	-10944
▁일이길	-10945
▁일이랑	-10946
▁일정을	-10947
▁일하고	-10948
▁일하시	-10949
▁일해요	-10950
▁읽는다	-10951
▁읽히나	-10952
▁있다니	-10953
▁있대요	-10954
▁있지는	-10955
▁잊겠어	-10956
▁잊기는	-10957
▁잊기로	-10958
▁잊어볼	-10959
▁잊어요	-10960
▁자격은	-10961
▁자기개	-10962
▁자기를	-10963
▁자꾸만	-10964
▁자라도	-10965
▁자르는	-10966
▁자세가	-10967
▁자세요	-10968
▁자연의	-10969
▁자유가	-10970
▁자체는	-10971
▁자체에	-10972
▁작동이	-10973
▁잔하기	-10974
▁잘가요	-10975
▁잘라요	-10976
▁잘못한	-10977
▁잘살고	-10978
▁잘해주	-10979
▁잠기는	-10980
▁잠깐씩	-10981
▁잡혔어	-10982
▁잤더니	-10983
▁장난친	-10984
▁장소에	-10985
▁재가입	-10986
▁재미로	-10987
▁재밌대	-10988
▁재밌죠	-10989
▁재회후	-10990
▁저라도	-10991
▁저와의	-10992
▁저처럼	-10993
▁적성에	-10994
▁적응을	-10995
▁적응해	-10996
▁전부인	-10997
▁전세계	-10998
▁전인데	-10999
▁깎인	-11000
▁뛰는	-11001
▁뽑아	-11002
▁으악	-11003
일수도	-11004
하던게	-11005
▁가운데	-11006
▁건데요	-11007
▁과식은	-11008
▁과일을	-11009
▁깎아요	-11010
▁남겨진	-11011
▁대충한	-11012
▁되가네	-11013
▁되도록	-11014
▁둘이서	-11015
▁만족을	-11016
▁만족해	-11017
▁많데요	-11018
▁목표는	-11019
▁무리에	-11020
▁밀당을	-11021
▁보험료	-11022
▁부딪히	-11023
▁부자님	-11024
▁설렘을	-11025
▁시기였	-11026
▁안오면	-11027
▁애인이	-11028
▁애정의	-11029
▁여기다	-11030
▁오시면	-11031
▁올라갈	-11032
▁음식이	-11033
▁이뤄질	-11034
▁자리에	-11035
▁전공에	-11036
▁전하면	-11037
▁전해졌	-11038
▁전해질	-11039
▁전화할	-11040
▁정도를	-11041
▁정도면	-11042
▁정리는	-11043
▁정리도	-11044
▁정으로	-11045
▁정해서	-11046
▁조금은	-11047
▁조금의	-11048
▁조심할	-11049
▁조절은	-11050
▁존댓말	-11051
▁존중된	-11052
▁종목을	-11053
▁종아리	-11054
▁좋거나	-11055
▁좋다가	-11056
▁좋아졌	-11057
▁좋았어	-11058
▁좋은건	-11059
▁좋은점	-11060
▁주고도	-11061
▁주량은	-11062
▁주름도	-11063
▁죽는게	-11064
▁죽었다	-11065
▁준비는	-11066
▁준비해	-11067
▁줄이고	-11068
▁줄이야	-11069
▁중간을	-11070
▁중간이	-11071
▁중간인	-11072
▁중간중	-11073
▁중고서	-11074
▁중요해	-11075
▁중이야	-11076
▁중인거	-11077
▁쥐꼬리	-11078
▁즐기면	-11079
▁증거라	-11080
▁증명자	-11081
▁지금이	-11082
▁지나야	-11083
▁지려고	-11084
▁지식이	-11085
▁지압을	-11086
▁지우는	-11087
▁지울까	-11088
▁지워야	-11089
▁지쳤을	-11090
▁지치고	-11091
▁지켜만	-11092
▁직장과	-11093
▁직장이	-11094
▁진실로	-11095
▁진실을	-11096
▁진전이	-11097
▁질리게	-11098
▁질리지	-11099
▁겁이	-11100
▁급해	-11101
▁냈어	-11102
▁녹차	-11103
▁놈의	-11104
▁닮아	-11105
▁띄길	-11106
▁찔러	-11107
박치기	-11108
주려는	-11109
주정도	-11110
지마요	-11111
하달까	-11112
▁구분이	-11113
▁급하게	-11114
▁끝냈어	-11115
▁내리길	-11116
▁노후가	-11117
▁닮아서	-11118
▁동성애	-11119
▁두분이	-11120
▁반가워	-11121
▁성장할	-11122
▁솔로야	-11123
▁수다를	-11124
▁수상해	-11125
▁심하대	-11126
▁어머나	-11127
▁어째서	-11128
▁외모는	-11129
▁입학식	-11130
▁중독인	-11131
▁질린다	-11132
▁집밖에	-11133
▁집어서	-11134
▁집에만	-11135
▁집주인	-11136
▁집착일	-11137
▁짝남을	-11138
▁짝남의	-11139
▁짝녀의	-11140
▁짧아요	-11141
▁짧으면	-11142
▁째깍째	-11143
▁쪼그만	-11144
▁찍었어	-11145
▁찔까봐	-11146
▁차가운	-11147
▁차라도	-11148
▁차례인	-11149
▁차리는	-11150
▁차별을	-11151
▁차용증	-11152
▁차이일	-11153
▁차인후	-11154
▁차트를	-11155
▁착해서	-11156
▁참다가	-11157
▁찾아갔	-11158
▁찾아서	-11159
▁찾아야	-11160
▁찾아왔	-11161
▁채우길	-11162
▁책임이	-11163
▁챙겨줘	-11164
▁처음만	-11165
▁처음은	-11166
▁청춘이	-11167
▁쳐다봄	-11168
▁쳐다봐	-11169
▁초록초	-11170
▁최우선	-11171
▁추억도	-11172
▁추억만	-11173
▁추억을	-11174
▁추워서	-11175
▁축하할	-11176
▁춘곤증	-11177
▁출근길	-11178
▁출발을	-11179
▁춥다고	-11180
▁춥지도	-11181
▁충분할	-11182
▁충전기	-11183
▁충전도	-11184
▁충전할	-11185
▁취미와	-11186
▁취업에	-11187
▁취직이	-11188
▁취하기	-11189
▁취향을	-11190
▁취향이	-11191
▁친구야	-11192
▁친구일	-11193
▁친절한	-11194
▁친하게	-11195
▁카드가	-11196
▁카드값	-11197
▁카페에	-11198
▁커지는	-11199
▁AB	-11200
▁땡겨	-11201
▁젖어	-11202
▁효율	-11203
버려서	-11204
육아가	-11205
이스를	-11206
▁길러도	-11207
▁끓이는	-11208
▁낮잠을	-11209
▁놓쳤어	-11210
▁누굴까	-11211
▁늙어가	-11212
▁다쳤어	-11213
▁돌보길	-11214
▁되돌릴	-11215
▁땀난다	-11216
▁멀리서	-11217
▁메모로	-11218
▁받으신	-11219
▁보낼까	-11220
▁비난만	-11221
▁빼놓지	-11222
▁순수한	-11223
▁신뢰가	-11224
▁실내로	-11225
▁아플까	-11226
▁안돌아	-11227
▁안정을	-11228
▁웬수죠	-11229
▁위대한	-11230
▁이직을	-11231
▁젖었어	-11232
▁직구로	-11233
▁진도가	-11234
▁참견해	-11235
▁체육복	-11236
▁충격이	-11237
▁커피도	-11238
▁커피를	-11239
▁커피에	-11240
▁컨트롤	-11241
▁케빈과	-11242
▁케익을	-11243
▁크겠죠	-11244
▁크기가	-11245
▁키우기	-11246
▁타세요	-11247
▁태도가	-11248
▁태도에	-11249
▁태어날	-11250
▁터질거	-11251
▁턱시도	-11252
▁텀블러	-11253
▁통하는	-11254
▁통해서	-11255
▁통화를	-11256
▁투자한	-11257
▁틀어도	-11258
▁티나요	-11259
▁티내면	-11260
▁판단은	-11261
▁편인데	-11262
▁편지도	-11263
▁편지를	-11264
▁편하네	-11265
▁편하죠	-11266
▁편한거	-11267
▁편해도	-11268
▁편해요	-11269
▁편해진	-11270
▁평소의	-11271
▁포기안	-11272
▁포장이	-11273
▁포커페	-11274
▁폭력은	-11275
▁폰게임	-11276
▁표정이	-11277
▁표현에	-11278
▁표현할	-11279
▁풀려고	-11280
▁풀어요	-11281
▁프사가	-11282
▁프사랑	-11283
▁프사로	-11284
▁프사를	-11285
▁프사에	-11286
▁피곤할	-11287
▁피나는	-11288
▁피하지	-11289
▁피해자	-11290
▁필수는	-11291
▁필연이	-11292
▁필요하	-11293
▁핑계로	-11294
▁핑계를	-11295
▁하나만	-11296
▁하나의	-11297
▁하는걸	-11298
▁하늘은	-11299
▁땅을	-11300
▁색감	-11301
▁앉아	-11302
▁캬아	-11303
▁탄생	-11304
▁탔다	-11305
▁탔던	-11306
하우스	-11307
▁갈만한	-11308
▁공개해	-11309
▁광고가	-11310
▁교복이	-11311
▁낙이죠	-11312
▁남는건	-11313
▁대리님	-11314
▁될수있	-11315
▁들이댔	-11316
▁똑같지	-11317
▁말로만	-11318
▁매순간	-11319
▁무소음	-11320
▁물증이	-11321
▁비싼데	-11322
▁사셔야	-11323
▁상의도	-11324
▁쉬셔야	-11325
▁쌓인다	-11326
▁아깝지	-11327
▁의자를	-11328
▁잘돼야	-11329
▁절제가	-11330
▁조건이	-11331
▁죽인다	-11332
▁중이래	-11333
▁즐겁죠	-11334
▁지치게	-11335
▁지치면	-11336
▁철벽치	-11337
▁침대와	-11338
▁코스를	-11339
▁탔는데	-11340
▁포근포	-11341
▁풀렸죠	-11342
▁하니까	-11343
▁하셔도	-11344
▁하셔야	-11345
▁하시면	-11346
▁학교갈	-11347
▁학기를	-11348
▁학생이	-11349
▁학원에	-11350
▁한계야	-11351
▁한계에	-11352
▁한때는	-11353
▁한마디	-11354
▁한번에	-11355
▁한번의	-11356
▁한사람	-11357
▁한적한	-11358
▁할지도	-11359
▁해결해	-11360
▁해보면	-11361
▁해봐도	-11362
▁해줬어	-11363
▁핸드백	-11364
▁했나요	-11365
▁행동을	-11366
▁행복의	-11367
▁행실을	-11368
▁행운일	-11369
▁향이죠	-11370
▁향하고	-11371
▁허례허	-11372
▁허전함	-11373
▁허전해	-11374
▁헤어졋	-11375
▁헬스장	-11376
▁헷갈릴	-11377
▁현금만	-11378
▁현금이	-11379
▁현실에	-11380
▁현실은	-11381
▁혼났어	-11382
▁혼내는	-11383
▁혼자있	-11384
▁혼전순	-11385
▁화가나	-11386
▁화나고	-11387
▁화내는	-11388
▁화냈어	-11389
▁화요일	-11390
▁화장은	-11391
▁화장을	-11392
▁화풀이	-11393
▁확신을	-11394
▁환승이	-11395
▁환심을	-11396
▁활기찬	-11397
▁활용에	-11398
▁홧김에	-11399
▁곱씹	-11400
▁곱창	-11401
▁광탈	-11402
▁찼던	-11403
▁황사	-11404
거같네	-11405
세포에	-11406
주저리	-11407
▁감당이	-11408
▁곱다고	-11409
▁눈썹이	-11410
▁득템해	-11411
▁땀나네	-11412
▁로봇도	-11413
▁베풀되	-11414
▁별다른	-11415
▁부부가	-11416
▁사수가	-11417
▁성덕이	-11418
▁소액이	-11419
▁소유가	-11420
▁슈퍼우	-11421
▁쌩얼도	-11422
▁아물길	-11423
▁알뜰한	-11424
▁요구가	-11425
▁욕심에	-11426
▁욕심의	-11427
▁이뻐서	-11428
▁이뻐요	-11429
▁이뻐해	-11430
▁인공눈	-11431
▁전세비	-11432
▁증오로	-11433
▁지키기	-11434
▁진지한	-11435
▁칼로리	-11436
▁평가원	-11437
▁평온해	-11438
▁한몸이	-11439
▁형편에	-11440
▁화내게	-11441
▁화내지	-11442
▁회복할	-11443
▁회사랑	-11444
▁회사를	-11445
▁후덜덜	-11446
▁후회돼	-11447
▁휴식에	-11448
▁휴양지	-11449
▁흐려지	-11450
▁흐르면	-11451
▁흘렀네	-11452
▁흘렸어	-11453
▁힘내려	-11454
▁힘드시	-11455
▁힘드신	-11456
▁힘든가	-11457
▁힘들것	-11458
▁힘들긴	-11459
▁힘들때	-11460
▁힘들만	-11461
▁힘들줄	-11462
▁힘차게	-11463
간이예요	-11464
개월간의	-11465
개월동안	-11466
개월이네	-11467
거같은데	-11468
과적일까	-11469
궈보세요	-11470
기사님들	-11471
나가세요	-11472
났습니다	-11473
년이라는	-11474
다니면서	-11475
다리타기	-11476
됐습니다	-11477
려나봐요	-11478
려합니다	-11479
록하네요	-11480
리는것도	-11481
린다는게	-11482
만이라도	-11483
메보세요	-11484
버려야지	-11485
버리시길	-11486
보고싶어	-11487
쇼핑에서	-11488
수있어요	-11489
수있을까	-11490
스러우면	-11491
스타일이	-11492
식이에요	-11493
야할지도	-11494
어보아요	-11495
어야겠다	-11496
었는가를	-11497
여행이죠	-11498
올랐다가	-11499
▁빚이	-11500
▁콕콕	-11501
▁플라	-11502
노래방	-11503
드레스	-11504
으려니	-11505
▁가스불	-11506
▁간식도	-11507
▁감수성	-11508
▁개념이	-11509
▁구분짓	-11510
▁구분해	-11511
▁구속해	-11512
▁꼼꼼한	-11513
▁꿈같다	-11514
▁나날을	-11515
▁납니다	-11516
▁누나가	-11517
▁능력만	-11518
▁떡졌어	-11519
▁떨쳐낼	-11520
▁막히네	-11521
▁물건들	-11522
▁바늘과	-11523
▁바닥을	-11524
▁받았다	-11525
▁상메가	-11526
▁설명이	-11527
▁시도해	-11528
▁심부름	-11529
▁왜그래	-11530
▁요리해	-11531
▁웃겨봐	-11532
▁은행에	-11533
▁작아져	-11534
▁잘하실	-11535
▁쪽지를	-11536
▁첫눈에	-11537
▁체질이	-11538
▁총회에	-11539
▁치매가	-11540
▁켜세요	-11541
▁탓인지	-11542
▁특징은	-11543
▁퍼가요	-11544
▁피우는	-11545
끄러워서	-11546
데이트가	-11547
으로부터	-11548
이너에게	-11549
이었나봐	-11550
일꺼에요	-11551
일째인데	-11552
적이어도	-11553
지우겠네	-11554
철과일이	-11555
추위래요	-11556
푸려지죠	-11557
하다면요	-11558
하려니까	-11559
하셨네요	-11560
하지만은	-11561
해당하기	-11562
해야겠죠	-11563
해야하고	-11564
해야할듯	-11565
해야해요	-11566
해주는게	-11567
해주면서	-11568
해주지는	-11569
했어야죠	-11570
했었는데	-11571
화식물도	-11572
▁가능성을	-11573
▁가능한지	-11574
▁가니까요	-11575
▁가라앉혀	-11576
▁가봅시다	-11577
▁가야겠다	-11578
▁가야겠지	-11579
▁가장해서	-11580
▁가져오면	-11581
▁가족같은	-11582
▁가족관계	-11583
▁가족끼리	-11584
▁가족에게	-11585
▁각질제거	-11586
▁간단하고	-11587
▁간절하네	-11588
▁감사해요	-11589
▁감정들을	-11590
▁감정들이	-11591
▁감출길이	-11592
▁강렬하고	-11593
▁강제종료	-11594
▁같은데도	-11595
▁같은데요	-11596
▁개강이다	-11597
▁개인적인	-11598
▁거라는데	-11599
▁굴면	-11600
▁눌러	-11601
▁라인	-11602
▁맴찢	-11603
▁맺는	-11604
▁윗집	-11605
▁품어	-11606
▁험해	-11607
지못한	-11608
▁값이죠	-11609
▁게스트	-11610
▁고가의	-11611
▁날에만	-11612
▁낮잠은	-11613
▁내면을	-11614
▁달력에	-11615
▁동아리	-11616
▁뜨겁고	-11617
▁먹먹함	-11618
▁베프랑	-11619
▁변신은	-11620
▁본받을	-11621
▁부르지	-11622
▁사주를	-11623
▁사춘기	-11624
▁사표를	-11625
▁살만해	-11626
▁서점에	-11627
▁선풍기	-11628
▁세우지	-11629
▁손맛이	-11630
▁시대는	-11631
▁식물을	-11632
▁실천이	-11633
▁안맞는	-11634
▁외부의	-11635
▁의중을	-11636
▁이랬다	-11637
▁저랬다	-11638
▁진리죠	-11639
▁창문을	-11640
▁천하를	-11641
▁체력에	-11642
▁치우고	-11643
▁컸으면	-11644
▁현명한	-11645
▁가게부를	-11646
▁가게에서	-11647
▁거였구나	-11648
▁거짓말일	-11649
▁건강검진	-11650
▁건강에도	-11651
▁건조하네	-11652
▁걷다보면	-11653
▁걸릴지도	-11654
▁걸으세요	-11655
▁검색해서	-11656
▁것이겠죠	-11657
▁것이라면	-11658
▁격려하고	-11659
▁결정이길	-11660
▁결정이죠	-11661
▁결정적인	-11662
▁결정했어	-11663
▁결혼생활	-11664
▁결혼에는	-11665
▁결혼하는	-11666
▁결혼했어	-11667
▁경우예요	-11668
▁경조사는	-11669
▁계속되는	-11670
▁계속해도	-11671
▁계절이죠	-11672
▁계획대로	-11673
▁고기어도	-11674
▁고르세요	-11675
▁고마워할	-11676
▁고민이나	-11677
▁고민이네	-11678
▁고민인지	-11679
▁고민하는	-11680
▁고백한다	-11681
▁고백할걸	-11682
▁고백할까	-11683
▁고비예요	-11684
▁고치려고	-11685
▁고치면서	-11686
▁고통받고	-11687
▁골랐나봐	-11688
▁공무원이	-11689
▁공부하길	-11690
▁공부해야	-11691
▁공통점을	-11692
▁공허하네	-11693
▁공황장애	-11694
▁관계에서	-11695
▁관심있나	-11696
▁관찰하고	-11697
▁괜찮다가	-11698
▁괜찮다고	-11699
▁박도	-11700
▁퇴사	-11701
▁거슬려	-11702
▁오셨길	-11703
▁일방적	-11704
▁일부러	-11705
▁자장가	-11706
▁장갑을	-11707
▁졸린데	-11708
▁증거일	-11709
▁질린대	-11710
▁처리할	-11711
▁청결한	-11712
▁타인과	-11713
▁타인의	-11714
▁폭식증	-11715
▁피로를	-11716
▁필기구	-11717
▁학벌이	-11718
▁감정기복	-11719
▁괜찮대요	-11720
▁괜찮아도	-11721
▁괴롭히는	-11722
▁교통사고	-11723
▁교환학생	-11724
▁구매하면	-11725
▁구하세요	-11726
▁궁금할만	-11727
▁귀여워요	-11728
▁귀엽다고	-11729
▁귀찮아서	-11730
▁귀찮으면	-11731
▁귀찮은데	-11732
▁그대로를	-11733
▁그래봤자	-11734
▁그러다가	-11735
▁그러든지	-11736
▁그런거지	-11737
▁그런건지	-11738
▁그럴때는	-11739
▁그럼에도	-11740
▁그렇겠지	-11741
▁그렇기도	-11742
▁그리워서	-11743
▁그립지만	-11744
▁그만두고	-11745
▁그만둬서	-11746
▁그만할래	-11747
▁그사람도	-11748
▁극복하고	-11749
▁극복하는	-11750
▁글자라도	-11751
▁기념일에	-11752
▁기념일을	-11753
▁기니까요	-11754
▁기다렸어	-11755
▁기다리다	-11756
▁기대하게	-11757
▁기분이야	-11758
▁기술이죠	-11759
▁기억들이	-11760
▁기억으로	-11761
▁기억하고	-11762
▁기우제를	-11763
▁기울이는	-11764
▁기울이지	-11765
▁기원해요	-11766
▁기적이죠	-11767
▁긴장하지	-11768
▁길어진다	-11769
▁깔끔하게	-11770
▁깔끔한게	-11771
▁깜빡거려	-11772
▁깨졌는데	-11773
▁꼬였는지	-11774
▁꾸준한게	-11775
▁꿈같았던	-11776
▁끊겼는데	-11777
▁끊었으면	-11778
▁끊으세요	-11779
▁끝났는데	-11780
▁끝내는게	-11781
▁끝내시길	-11782
▁끝냈는데	-11783
▁끝이났네	-11784
▁끝이라고	-11785
▁끝인가봐	-11786
▁나가기가	-11787
▁나가야지	-11788
▁나눠봐요	-11789
▁나아지지	-11790
▁나오기도	-11791
▁나오는데	-11792
▁나온다니	-11793
▁나온대요	-11794
▁나으세요	-11795
▁나이테죠	-11796
▁나타나면	-11797
▁난방비가	-11798
▁난방으로	-11799
▁갱신	-11800
▁깍고	-11801
▁꼈어	-11802
▁떴어	-11803
▁볶는	-11804
▁빛이	-11805
▁뻐근	-11806
▁뽀뽀	-11807
▁샜어	-11808
▁앱이	-11809
▁얽힌	-11810
▁엊그	-11811
▁짰어	-11812
▁쪄서	-11813
그램을	-11814
년만난	-11815
년사귄	-11816
안됐네	-11817
용품이	-11818
이진지	-11819
▁계신가	-11820
▁기침도	-11821
▁꽃바구	-11822
▁꾸미고	-11823
▁냉방비	-11824
▁녹여서	-11825
▁더디게	-11826
▁돌잔치	-11827
▁동시에	-11828
▁맞이할	-11829
▁매몰찬	-11830
▁먹여주	-11831
▁못생긴	-11832
▁바래다	-11833
▁벌레를	-11834
▁벗어날	-11835
▁복받은	-11836
▁블랙박	-11837
▁숫자일	-11838
▁스쳐도	-11839
▁야구장	-11840
▁없거든	-11841
▁오로라	-11842
▁욜로의	-11843
▁저평가	-11844
▁진부한	-11845
▁헐었어	-11846
커플인데	-11847
▁계약했어	-11848
▁공간으로	-11849
▁공복이라	-11850
▁기쁨이죠	-11851
▁나빴네요	-11852
▁날거예요	-11853
▁날이예요	-11854
▁날인지는	-11855
▁남나봐요	-11856
▁남았다면	-11857
▁남은걸까	-11858
▁남이라는	-11859
▁남자들이	-11860
▁남자와의	-11861
▁남자인데	-11862
▁남자인지	-11863
▁남편이랑	-11864
▁남편한테	-11865
▁낫겠네요	-11866
▁났나봐요	-11867
▁내려놓는	-11868
▁내일이면	-11869
▁냉동실에	-11870
▁넣으세요	-11871
▁노력하지	-11872
▁노트북은	-11873
▁녹음이나	-11874
▁놀러갈까	-11875
▁놀았는데	-11876
▁농구하다	-11877
▁농담처럼	-11878
▁뇌세포에	-11879
▁누구와도	-11880
▁누락됐어	-11881
▁느껴보고	-11882
▁느껴질때	-11883
▁느끼는게	-11884
▁느낌이길	-11885
▁늘거예요	-11886
▁늙어가고	-11887
▁능력이긴	-11888
▁다가가고	-11889
▁다가가기	-11890
▁다가가면	-11891
▁다가왔어	-11892
▁다그치지	-11893
▁다녀와요	-11894
▁다니거나	-11895
▁다니면서	-11896
▁다니세요	-11897
▁다르지만	-11898
▁다정한게	-11899
▁깐깐	-11900
▁닭발	-11901
▁댄디	-11902
▁댓글	-11903
▁송장	-11904
▁쩌는	-11905
▁쿠폰	-11906
▁힌트	-11907
기자랑	-11908
▁고구마	-11909
▁공기정	-11910
▁기관에	-11911
▁꼬까옷	-11912
▁꿀꿀해	-11913
▁끊긴지	-11914
▁노처녀	-11915
▁도구죠	-11916
▁동그란	-11917
▁들여다	-11918
▁땡기네	-11919
▁목감기	-11920
▁몸값을	-11921
▁생강차	-11922
▁옷깃만	-11923
▁저금통	-11924
▁챙길게	-11925
▁칼국수	-11926
▁코골이	-11927
▁편린일	-11928
▁하객이	-11929
▁현관문	-11930
나보군요	-11931
포인트가	-11932
▁견과류나	-11933
▁기분나쁘	-11934
▁길거리에	-11935
▁끊으라고	-11936
▁나타나죠	-11937
▁눈꺼풀의	-11938
▁다했는데	-11939
▁다했다면	-11940
▁단둘이는	-11941
▁닫으세요	-11942
▁달라질까	-11943
▁답답하고	-11944
▁당신이요	-11945
▁당황해서	-11946
▁대단해요	-11947
▁대답할지	-11948
▁대우하는	-11949
▁대청소를	-11950
▁덤덤하게	-11951
▁데이트로	-11952
▁데이트에	-11953
▁데이트요	-11954
▁도망가고	-11955
▁도서관도	-11956
▁도와주세	-11957
▁도와줄까	-11958
▁독특함을	-11959
▁돌아가서	-11960
▁돌아보는	-11961
▁돌아보면	-11962
▁돌아서지	-11963
▁돌아오기	-11964
▁동거하고	-11965
▁동거하다	-11966
▁동거해도	-11967
▁동물이죠	-11968
▁동생으로	-11969
▁동심으로	-11970
▁되가는데	-11971
▁되는건지	-11972
▁되었나요	-11973
▁되었네요	-11974
▁되었는데	-11975
▁되었으면	-11976
▁된답니다	-11977
▁두근거려	-11978
▁두셨군요	-11979
▁뒷감당은	-11980
▁뒷모습만	-11981
▁뒹굴뒹글	-11982
▁드레스룸	-11983
▁드릴까요	-11984
▁드시는거	-11985
▁드시라고	-11986
▁득템했길	-11987
▁든든하게	-11988
▁듣고싶어	-11989
▁들어가요	-11990
▁들어와서	-11991
▁들었는데	-11992
▁들었어요	-11993
▁들으세요	-11994
▁들텐데요	-11995
▁등산해요	-11996
▁따라오게	-11997
▁따라하게	-11998
▁따야하나	-11999
넛오일	-12000
년여의	-12001
볶음밥	-12002
설팅을	-12003
워크가	-12004
율주행	-12005
▁가르쳐	-12006
▁가습기	-12007
▁개당황	-12008
▁거리두	-12009
▁건방져	-12010
▁구릿빛	-12011
▁권리로	-12012
▁금사빠	-12013
▁기어오	-12014
▁나눴길	-12015
▁노동을	-12016
▁다육이	-12017
▁덕수궁	-12018
▁돈버는	-12019
▁돌담길	-12020
▁등록금	-12021
▁또다시	-12022
▁말랭이	-12023
▁문열다	-12024
▁문의해	-12025
▁민망한	-12026
▁반배정	-12027
▁배웠길	-12028
▁봄방학	-12029
▁북받쳐	-12030
▁브런치	-12031
▁상견례	-12032
▁서비스	-12033
▁섣부르	-12034
▁세뱃돈	-12035
▁솜씨가	-12036
▁수당을	-12037
▁수많은	-12038
▁수백번	-12039
▁순서는	-12040
▁식도염	-12041
▁신선한	-12042
▁알람을	-12043
▁앞서서	-12044
▁양배추	-12045
▁역류성	-12046
▁오싹한	-12047
▁온수로	-12048
▁윗몸일	-12049
▁유머코	-12050
▁이브네	-12051
▁쟁여둔	-12052
▁전달할	-12053
▁전생에	-12054
▁정동진	-12055
▁정수리	-12056
▁조명빨	-12057
▁종이에	-12058
▁차리래	-12059
▁채널을	-12060
▁철밥통	-12061
▁카메라	-12062
▁크루즈	-12063
▁팬미팅	-12064
▁편두통	-12065
▁프리마	-12066
▁피씨방	-12067
▁피어싱	-12068
▁호박씨	-12069
거리확보	-12070
나쁜건지	-12071
대사량을	-12072
되어있는	-12073
방향인지	-12074
손잡이가	-12075
야한다는	-12076
▁가시밭길	-12077
▁다가옴을	-12078
▁때문이죠	-12079
▁때입니다	-12080
▁떠나갔네	-12081
▁떠나갔어	-12082
▁떠나보내	-12083
▁떠나세요	-12084
▁떠난다는	-12085
▁떠날까봐	-12086
▁떠오르네	-12087
▁떨리네요	-12088
▁떨리더라	-12089
▁떨어지지	-12090
▁뛰어넘는	-12091
▁뛰어넘을	-12092
▁뜨끈하게	-12093
▁뜻하기도	-12094
▁라디오를	-12095
▁라면봉지	-12096
▁로맨스는	-12097
▁롱디인데	-12098
▁마무리가	-12099
적추적	-12100
▁광합성	-12101
▁귀찬하	-12102
▁남주긴	-12103
▁내키는	-12104
▁넥타이	-12105
▁도피성	-12106
▁동전의	-12107
▁두통약	-12108
▁롱패딩	-12109
▁마카롱	-12110
▁모잘라	-12111
▁모태솔	-12112
▁문질러	-12113
▁방탈출	-12114
▁보증금	-12115
▁비키니	-12116
▁비판의	-12117
▁술주정	-12118
▁썸탈때	-12119
▁아줌마	-12120
▁안햇다	-12121
▁애착이	-12122
▁애키우	-12123
▁옥죄지	-12124
▁원피스	-12125
▁이전과	-12126
▁일하든	-12127
▁재테크	-12128
▁조취를	-12129
▁체조를	-12130
▁타임머	-12131
▁특이한	-12132
▁틈틈이	-12133
자격증을	-12134
주시다니	-12135
▁거창하지	-12136
▁공채때는	-12137
▁그곳에서	-12138
▁그나저나	-12139
▁날카로워	-12140
▁다크서클	-12141
▁단짠으로	-12142
▁마스크팩	-12143
▁마시라고	-12144
▁마시세요	-12145
▁마음가짐	-12146
▁마음만은	-12147
▁마음에도	-12148
▁마음이죠	-12149
▁마음처럼	-12150
▁마주쳤어	-12151
▁마주하는	-12152
▁마찬가지	-12153
▁마침표가	-12154
▁막장으로	-12155
▁막히더라	-12156
▁만나는거	-12157
▁만나면서	-12158
▁만나보고	-12159
▁만나보는	-12160
▁만나야죠	-12161
▁만나지말	-12162
▁만드니까	-12163
▁만드세요	-12164
▁만족하는	-12165
▁만족하면	-12166
▁많겠네요	-12167
▁많겠어요	-12168
▁많나봐요	-12169
▁많아졌어	-12170
▁많아지는	-12171
▁많았으면	-12172
▁말보다는	-12173
▁말아야지	-12174
▁말이라도	-12175
▁말인가요	-12176
▁말하면서	-12177
▁말해주죠	-12178
▁말했으면	-12179
▁맘같으면	-12180
▁맘에서도	-12181
▁맛있는거	-12182
▁맛있을거	-12183
▁망설여지	-12184
▁망하는건	-12185
▁맞장구쳐	-12186
▁맞추려고	-12187
▁맞춤법을	-12188
▁맞춰가는	-12189
▁매력있는	-12190
▁매정하게	-12191
▁맨날맨날	-12192
▁머리에서	-12193
▁머릿속에	-12194
▁먹고네요	-12195
▁먹어보고	-12196
▁먹었어도	-12197
▁먹으니까	-12198
▁먹으려고	-12199
코스터를	-12200
▁교직이수	-12201
▁구꺼비집	-12202
▁권유하고	-12203
▁낙담하지	-12204
▁뒤처지는	-12205
▁디저트는	-12206
▁먹을수록	-12207
▁멀었네요	-12208
▁멀었어요	-12209
▁멋있는거	-12210
▁메뉴얼이	-12211
▁명절에는	-12212
▁명확하게	-12213
▁모르겠음	-12214
▁모르겠지	-12215
▁모르는걸	-12216
▁모르니까	-12217
▁모아봐요	-12218
▁모으시는	-12219
▁모임에서	-12220
▁모자라요	-12221
▁모자라지	-12222
▁목도리는	-12223
▁목소리는	-12224
▁몫이에요	-12225
▁몫입니다	-12226
▁몰라줘도	-12227
▁몰랐네요	-12228
▁몰려가는	-12229
▁몸짓으로	-12230
▁못잊는거	-12231
▁못하냐구	-12232
▁못하시는	-12233
▁무관심이	-12234
▁무기력증	-12235
▁무기력해	-12236
▁무뚝뚝해	-12237
▁무리일까	-12238
▁무리하면	-12239
▁무리하지	-12240
▁무서운건	-12241
▁무서워서	-12242
▁무시하지	-12243
▁무엇보다	-12244
▁무엇인지	-12245
▁문화센터	-12246
▁묻어두는	-12247
▁물론이죠	-12248
▁물리치료	-12249
▁물어보지	-12250
▁물이라도	-12251
▁뭐였더라	-12252
▁뭐하면서	-12253
▁미련없는	-12254
▁미리미리	-12255
▁미스트나	-12256
▁미워하는	-12257
▁미워한다	-12258
▁미워해도	-12259
▁미치겠다	-12260
▁미팅한다	-12261
▁밑거름이	-12262
▁바랄세요	-12263
▁바람난거	-12264
▁바람이나	-12265
▁바람인지	-12266
▁바르세요	-12267
▁바보같은	-12268
▁바보라고	-12269
▁바쁘네요	-12270
▁반대예요	-12271
▁반복될까	-12272
▁반복하지	-12273
▁반이에요	-12274
▁반하는게	-12275
▁반항했어	-12276
▁받아드리	-12277
▁받아줄까	-12278
▁받았는데	-12279
▁받으시는	-12280
▁발바니다	-12281
▁발전시켜	-12282
▁발전적인	-12283
▁발전하면	-12284
▁발표할때	-12285
▁밝혀지기	-12286
▁밥심으로	-12287
▁밥이예요	-12288
▁방법이란	-12289
▁방학이래	-12290
▁배고프지	-12291
▁배려하고	-12292
▁배려해줄	-12293
▁배우는게	-12294
▁배우자와	-12295
▁배움에는	-12296
▁배터리가	-12297
▁백업해놓	-12298
▁버리겠어	-12299
▁버스에서	-12300
▁범죄에요	-12301
▁법이에요	-12302
▁벗어나고	-12303
▁벗었는데	-12304
▁벗으니까	-12305
▁벚꽃구경	-12306
▁베터리만	-12307
▁베트남어	-12308
▁변신하고	-12309
▁변화이길	-12310
▁별로라면	-12311
▁별로인가	-12312
▁별이에요	-12313
▁보고싶을	-12314
▁보내기로	-12315
▁보내줘야	-12316
▁보란듯이	-12317
▁보였으면	-12318
▁보이는데	-12319
▁보이세요	-12320
▁보일러를	-12321
▁보자는데	-12322
▁보장해요	-12323
▁복붙으로	-12324
▁복스럽게	-12325
▁복이와요	-12326
▁복전하면	-12327
▁봄인가봐	-12328
▁봐달라고	-12329
▁봐야겠다	-12330
▁봐야하나	-12331
▁봐주니까	-12332
▁봤나봐요	-12333
▁부담감을	-12334
▁부담되지	-12335
▁부담스러	-12336
▁부메랑이	-12337
▁부모님과	-12338
▁부여하지	-12339
▁부자되실	-12340
▁부족한지	-12341
▁부질없는	-12342
▁부추기면	-12343
▁분에게도	-12344
▁분위기도	-12345
▁분이네요	-12346
▁불과하죠	-12347
▁불금이네	-12348
▁불러줬어	-12349
▁불편함을	-12350
▁붙이세요	-12351
▁블록들이	-12352
▁블루투스	-12353
▁비슷한거	-12354
▁비싸지만	-12355
▁비오는데	-12356
▁비왔으면	-12357
▁빌어먹을	-12358
▁빠졌군요	-12359
▁빠질까봐	-12360
▁뽑지말고	-12361
▁뿐이예요	-12362
▁사겼는데	-12363
▁사귀기로	-12364
▁사귀어서	-12365
▁사나봐요	-12366
▁사는데요	-12367
▁사드리고	-12368
▁사라질까	-12369
▁사람들과	-12370
▁사람들도	-12371
▁사람들을	-12372
▁사람보다	-12373
▁사람이네	-12374
▁사람인가	-12375
▁사람인지	-12376
▁사랑없이	-12377
▁사랑에서	-12378
▁사랑이란	-12379
▁사랑인가	-12380
▁사랑해도	-12381
▁사랑해줘	-12382
▁사랑했기	-12383
▁사야겠지	-12384
▁사오세요	-12385
▁사이라면	-12386
▁사이즈를	-12387
▁사주세요	-12388
▁사춘기로	-12389
▁살기에는	-12390
▁살아야돼	-12391
▁삼겹살에	-12392
▁상담이나	-12393
▁상대분이	-12394
▁상사예요	-12395
▁상사한테	-12396
▁상종하지	-12397
▁상처주는	-12398
▁상처주지	-12399
▁상처줬어	-12400
▁상태에서	-12401
▁상황에서	-12402
▁상황인지	-12403
▁색다른걸	-12404
▁생각나서	-12405
▁생각난다	-12406
▁생각났을	-12407
▁생각인지	-12408
▁생각하기	-12409
▁생각하며	-12410
▁생각했을	-12411
▁생겼나봐	-12412
▁생기시길	-12413
▁생긴다고	-12414
▁생일이야	-12415
▁생일인데	-12416
▁샤워가운	-12417
▁서운한거	-12418
▁서운함을	-12419
▁서툴러도	-12420
▁서핑하러	-12421
▁선물이라	-12422
▁선물할까	-12423
▁선생님도	-12424
▁선천적인	-12425
▁선택이든	-12426
▁선택이죠	-12427
▁설날인데	-12428
▁성공에서	-12429
▁성공적일	-12430
▁성공하면	-12431
▁성공했길	-12432
▁성장하려	-12433
▁세수하고	-12434
▁섹스리스	-12435
▁소독하고	-12436
▁소리나서	-12437
▁소맥이요	-12438
▁소분해서	-12439
▁소액결제	-12440
▁소중하게	-12441
▁소중해요	-12442
▁속사정을	-12443
▁속이는건	-12444
▁손재주가	-12445
▁손톱이나	-12446
▁손해예요	-12447
▁솔솔와서	-12448
▁솔직하지	-12449
▁쇼핑몰이	-12450
▁수강신청	-12451
▁수분크림	-12452
▁수상한데	-12453
▁수업시간	-12454
▁수준에서	-12455
▁순간들이	-12456
▁순수했던	-12457
▁술마시고	-12458
▁술마시는	-12459
▁쉽겠어요	-12460
▁슈퍼라도	-12461
▁스노클링	-12462
▁스몰웨딩	-12463
▁스스로도	-12464
▁스스로의	-12465
▁스케일링	-12466
▁스타벅스	-12467
▁스타일러	-12468
▁스타일의	-12469
▁슬프게도	-12470
▁습관으로	-12471
▁시간들을	-12472
▁시간들이	-12473
▁시간이죠	-12474
▁시간인가	-12475
▁시기에요	-12476
▁시베리아	-12477
▁시작하고	-12478
▁시켜야지	-12479
▁시켜줬어	-12480
▁시트지로	-12481
▁식사시간	-12482
▁식습관을	-12483
▁식욕폭발	-12484
▁식이요법	-12485
▁신용카드	-12486
▁신행준비	-12487
▁신혼인데	-12488
▁실례에요	-12489
▁실례예요	-12490
▁실수한거	-12491
▁실패해도	-12492
▁싫어져요	-12493
▁싫어졌어	-12494
▁싫어할까	-12495
▁싫었는데	-12496
▁싫은가봐	-12497
▁심리상담	-12498
▁심심하다	-12499
▁심쿵하게	-12500
▁심플하게	-12501
▁심하네요	-12502
▁싶어서요	-12503
▁싶어지죠	-12504
▁싶었는데	-12505
▁싶은대로	-12506
▁싸가지고	-12507
▁싸우기만	-12508
▁싸웠는데	-12509
▁썸남인데	-12510
▁썸타는거	-12511
▁썸타는데	-12512
▁쓰니까요	-12513
▁씁쓸하네	-12514
▁씨씨인데	-12515
▁씻어보고	-12516
▁아까워요	-12517
▁아깝네요	-12518
▁아니예요	-12519
▁아닌가봐	-12520
▁아닐지도	-12521
▁아름답게	-12522
▁아무렇지	-12523
▁아무일도	-12524
▁아빠에게	-12525
▁아시네요	-12526
▁아싸해도	-12527
▁아웃풋이	-12528
▁아이돌이	-12529
▁아재인가	-12530
▁아직인가	-12531
▁아파트가	-12532
▁아파하지	-12533
▁아프니까	-12534
▁아픈가요	-12535
▁아픈것도	-12536
▁안가지고	-12537
▁안경테가	-12538
▁안나가고	-12539
▁안녕이죠	-12540
▁안돌아오	-12541
▁안됐네요	-12542
▁안되는게	-12543
▁안된다고	-12544
▁안됩니다	-12545
▁안들어와	-12546
▁안전하지	-12547
▁안정적인	-12548
▁안풀리는	-12549
▁안하고는	-12550
▁안하는게	-12551
▁안했으면	-12552
▁앉아있지	-12553
▁않으셨나	-12554
▁알거예요	-12555
▁알고보니	-12556
▁알바비가	-12557
▁알바예요	-12558
▁알바하면	-12559
▁알아가고	-12560
▁알아내서	-12561
▁알아봐요	-12562
▁알아주는	-12563
▁알았어요	-12564
▁알았으면	-12565
▁앞머리로	-12566
▁앞모습을	-12567
▁앞으로는	-12568
▁애국가요	-12569
▁애매모호	-12570
▁애석해요	-12571
▁야경구경	-12572
▁야경이죠	-12573
▁약해지면	-12574
▁양치하고	-12575
▁어디론가	-12576
▁어디에요	-12577
▁어딘가에	-12578
▁어떡하면	-12579
▁어떡해야	-12580
▁어떤건지	-12581
▁어떻하죠	-12582
▁어렵네요	-12583
▁어렸을때	-12584
▁어리석은	-12585
▁어색해서	-12586
▁어울리면	-12587
▁어장관리	-12588
▁어장이면	-12589
▁어젯밤에	-12590
▁어찌하면	-12591
▁언제했어	-12592
▁얻는다는	-12593
▁얼떨떨할	-12594
▁없는걸요	-12595
▁없어졌네	-12596
▁없었는데	-12597
▁없을거야	-12598
▁엇갈리는	-12599
▁여러가지	-12600
▁여름에는	-12601
▁여우네요	-12602
▁여자애랑	-12603
▁여자애를	-12604
▁여자애의	-12605
▁여자인지	-12606
▁여행가재	-12607
▁엮여있는	-12608
▁연락하기	-12609
▁연락했어	-12610
▁연습하면	-12611
▁연애하다	-12612
▁연예인을	-12613
▁열받아서	-12614
▁열어주지	-12615
▁였나봐요	-12616
▁영어학원	-12617
▁영칼로리	-12618
▁영화보재	-12619
▁예능이요	-12620
▁예랑이가	-12621
▁예민해서	-12622
▁예민해져	-12623
▁예쁘겠죠	-12624
▁예쁘니까	-12625
▁예쁜걸로	-12626
▁예전처럼	-12627
▁오겠네요	-12628
▁오늘보다	-12629
▁오늘부로	-12630
▁오늘처럼	-12631
▁오래가요	-12632
▁오려나요	-12633
▁오빠한테	-12634
▁오해하게	-12635
▁옳은걸까	-12636
▁옷차림도	-12637
▁완전체가	-12638
▁완전하게	-12639
▁왔다갔다	-12640
▁외로움이	-12641
▁외로워서	-12642
▁요긴하긴	-12643
▁요즘에는	-12644
▁욕망이지	-12645
▁우리끼리	-12646
▁우리집에	-12647
▁우울하고	-12648
▁우울하네	-12649
▁우울할땐	-12650
▁운동하게	-12651
▁운동하고	-12652
▁운동하다	-12653
▁운전처럼	-12654
▁울적해서	-12655
▁웃어봐요	-12656
▁웃음나는	-12657
▁월급날을	-12658
▁월급날이	-12659
▁월요일도	-12660
▁웨딩촬영	-12661
▁위로해줄	-12662
▁위해서는	-12663
▁위험하죠	-12664
▁위험할까	-12665
▁위험해요	-12666
▁유행이래	-12667
▁유행하고	-12668
▁의사표시	-12669
▁의존하는	-12670
▁의지하지	-12671
▁이것저것	-12672
▁이겨내기	-12673
▁이대로가	-12674
▁이벤트를	-12675
▁이별에도	-12676
▁이별하신	-12677
▁이별했네	-12678
▁이별했어	-12679
▁이불에서	-12680
▁이상으로	-12681
▁이상이면	-12682
▁이상하게	-12683
▁이상하지	-12684
▁이상형일	-12685
▁이야기가	-12686
▁이어지길	-12687
▁이해하지	-12688
▁이해해줘	-12689
▁익숙함이	-12690
▁인도해줄	-12691
▁인사부터	-12692
▁인스타를	-12693
▁인연인가	-12694
▁인정해줄	-12695
▁일기예보	-12696
▁일방적인	-12697
▁일상에서	-12698
▁일시적인	-12699
▁일어날까	-12700
▁일요일이	-12701
▁일이냐에	-12702
▁일이었어	-12703
▁일이었을	-12704
▁일이지요	-12705
▁일인자가	-12706
▁입냄새가	-12707
▁입어보고	-12708
▁잇몸에서	-12709
▁있겠지요	-12710
▁있다는데	-12711
▁있다면요	-12712
▁있었는지	-12713
▁있을거라	-12714
▁있을수도	-12715
▁잊고싶다	-12716
▁잊어가요	-12717
▁잊지말고	-12718
▁잊혀지네	-12719
▁잊혀지면	-12720
▁자격증일	-12721
▁자괴감이	-12722
▁자기보다	-12723
▁자기한테	-12724
▁자랑하는	-12725
▁자리에서	-12726
▁자세예요	-12727
▁자신다운	-12728
▁자신하고	-12729
▁자유지만	-12730
▁자율주행	-12731
▁자장가를	-12732
▁자주하면	-12733
▁작은것에	-12734
▁잔인하네	-12735
▁잔잔하네	-12736
▁잘됐으면	-12737
▁잘못이지	-12738
▁잘생겼어	-12739
▁잘생겼지	-12740
▁잘하는지	-12741
▁잘하니까	-12742
▁잘하세요	-12743
▁잘해줘도	-12744
▁잠겼는데	-12745
▁잠수타는	-12746
▁잠수탔어	-12747
▁잠자리에	-12748
▁잠재력은	-12749
▁장기자랑	-12750
▁장단점을	-12751
▁장만하는	-12752
▁재미없지	-12753
▁재밌거나	-12754
▁재밌겠지	-12755
▁재설계가	-12756
▁재택근무	-12757
▁재활용도	-12758
▁재회하고	-12759
▁재회하면	-12760
▁저렴하게	-12761
▁저음이죠	-12762
▁저입니다	-12763
▁저축해서	-12764
▁저편으로	-12765
▁적당해요	-12766
▁적응하고	-12767
▁적이에요	-12768
▁전기장판	-12769
▁전역해서	-12770
▁전하는게	-12771
▁전하세요	-12772
▁전학가게	-12773
▁전형적인	-12774
▁전화왔어	-12775
▁전화하고	-12776
▁전화하기	-12777
▁절약하면	-12778
▁접질렀어	-12779
▁정글에서	-12780
▁정리하려	-12781
▁정리해야	-12782
▁정상이죠	-12783
▁정상일까	-12784
▁정신차리	-12785
▁정열적인	-12786
▁제습기를	-12787
▁조깅하고	-12788
▁조심스레	-12789
▁조용하니	-12790
▁종료네요	-12791
▁좋겠다고	-12792
▁좋더라도	-12793
▁좋아해서	-12794
▁좋았겠죠	-12795
▁좋으면서	-12796
▁좋은점을	-12797
▁좋은차로	-12798
▁좋은텐데	-12799
▁좋을거죠	-12800
▁좋지만은	-12801
▁주물주물	-12802
▁주워담을	-12803
▁주인공은	-12804
▁주차장이	-12805
▁주택청약	-12806
▁죽고싶어	-12807
▁준비하니	-12808
▁준비하면	-12809
▁중독에서	-12810
▁중소기업	-12811
▁중요한지	-12812
▁즐거워요	-12813
▁즐겨보는	-12814
▁즐겨야지	-12815
▁증명하는	-12816
▁지각하네	-12817
▁지금까지	-12818
▁지금이죠	-12819
▁지끈거려	-12820
▁지내는데	-12821
▁지냈으면	-12822
▁지름신이	-12823
▁지불하고	-12824
▁지속해도	-12825
▁지압이나	-12826
▁지옥같은	-12827
▁지진나면	-12828
▁지쳐가네	-12829
▁지켜보는	-12830
▁지켜지지	-12831
▁지키면서	-12832
▁직접적인	-12833
▁진급에서	-12834
▁진리예요	-12835
▁진실되게	-12836
▁진심인지	-12837
▁진짜일까	-12838
▁질거예요	-12839
▁질척거리	-12840
▁질투하는	-12841
▁질투하지	-12842
▁짐작하는	-12843
▁집안일이	-12844
▁집앞에서	-12845
▁집착하지	-12846
▁짜장면은	-12847
▁짜증난다	-12848
▁짝사랑인	-12849
▁짝사랑일	-12850
▁짝사랑한	-12851
▁짧은만남	-12852
▁째깍째깍	-12853
▁찌뿌둥해	-12854
▁찍다보면	-12855
▁차곡차곡	-12856
▁차단하는	-12857
▁착각일까	-12858
▁착각하고	-12859
▁참석하는	-12860
▁참았어요	-12861
▁찾는다고	-12862
▁찾아가고	-12863
▁찾아보는	-12864
▁찾아볼까	-12865
▁찾아야할	-12866
▁찾아오길	-12867
▁챙겨주고	-12868
▁챙겨줄까	-12869
▁챙긴다는	-12870
▁처음이라	-12871
▁천국이니	-12872
▁천재예요	-12873
▁첫데이트	-12874
▁첫사랑도	-12875
▁첫사랑은	-12876
▁첫키스는	-12877
▁청결하게	-12878
▁청소기를	-12879
▁청첩장을	-12880
▁체인으로	-12881
▁초대하고	-12882
▁초심으로	-12883
▁최고라고	-12884
▁추적추적	-12885
▁출근시간	-12886
▁출근하기	-12887
▁출퇴근을	-12888
▁충전기도	-12889
▁충전기를	-12890
▁충전하고	-12891
▁충전하는	-12892
▁취직할까	-12893
▁취향인데	-12894
▁치맥이죠	-12895
▁치열하죠	-12896
▁친구사이	-12897
▁친구해도	-12898
▁친절한데	-12899
▁침대에서	-12900
▁카카오톡	-12901
▁카톡에서	-12902
▁카톡하고	-12903
▁카톡하는	-12904
▁카톡하지	-12905
▁카페가면	-12906
▁카페라도	-12907
▁카페인이	-12908
▁커뮤니티	-12909
▁커플부터	-12910
▁컨설팅을	-12911
▁컴백한다	-12912
▁콜록콜록	-12913
▁크게한번	-12914
▁클스마스	-12915
▁키우세요	-12916
▁타이밍을	-12917
▁탈이네요	-12918
▁탈출구를	-12919
▁탈출하고	-12920
▁태그해도	-12921
▁태닝할까	-12922
▁태도네요	-12923
▁태어나고	-12924
▁태어나도	-12925
▁태연하게	-12926
▁택시탈까	-12927
▁통화하면	-12928
▁퇴근시간	-12929
▁트집잡는	-12930
▁특별하죠	-12931
▁티냈는데	-12932
▁팀워크가	-12933
▁파급력이	-12934
▁파혼했어	-12935
▁판단하지	-12936
▁패션으로	-12937
▁편안하고	-12938
▁편이에요	-12939
▁편하대요	-12940
▁편할지도	-12941
▁평소처럼	-12942
▁평안했던	-12943
▁평온하길	-12944
▁포근하죠	-12945
▁포기해야	-12946
▁폰케이스	-12947
▁표출하는	-12948
▁플라토닉	-12949
▁피곤한건	-12950
▁피곤한테	-12951
▁피해가는	-12952
▁피해주지	-12953
▁필요없는	-12954
▁필요하면	-12955
▁필요할까	-12956
▁필요했던	-12957
▁핑계보다	-12958
▁하겠네요	-12959
▁하고싶다	-12960
▁하고싶어	-12961
▁하고싶은	-12962
▁하나밖에	-12963
▁하는거야	-12964
▁하는건가	-12965
▁하늘만큼	-12966
▁하던데요	-12967
▁하루이길	-12968
▁하셔야죠	-12969
▁하셨어요	-12970
▁하시다니	-12971
▁학기에는	-12972
▁한강에서	-12973
▁한눈팔며	-12974
▁한다는데	-12975
▁한달됐어	-12976
▁한달반째	-12977
▁한달인데	-12978
▁한순간에	-12979
▁한심하네	-12980
▁함께하면	-12981
▁함께할때	-12982
▁합격하는	-12983
▁해결방안	-12984
▁해결해줄	-12985
▁해도해도	-12986
▁해드세요	-12987
▁해로우니	-12988
▁해로워요	-12989
▁해버렸네	-12990
▁해보는건	-12991
▁해보는게	-12992
▁해봤어요	-12993
▁해야겠어	-12994
▁해야하는	-12995
▁핸드폰은	-12996
▁핸드폰을	-12997
▁했을거라	-12998
▁행복하실	-12999
▁행운까지	-13000
▁허락하는	-13001
▁허리띠를	-13002
▁허무하다	-13003
▁헤어나올	-13004
▁헤어져도	-13005
▁헤어지신	-13006
▁헤어진후	-13007
▁헤이진지	-13008
▁현금이면	-13009
▁현실에서	-13010
▁현실이랑	-13011
▁호감가는	-13012
▁호감인지	-13013
▁호르몬이	-13014
▁호의인지	-13015
▁혼나면서	-13016
▁혼란스럽	-13017
▁혼자인게	-13018
▁혼자하는	-13019
▁화가나네	-13020
▁화장실을	-13021
▁화장으로	-13022
▁확신하는	-13023
▁확실하지	-13024
▁확실한지	-13025
▁확실해졌	-13026
▁환기하는	-13027
▁환승하는	-13028
▁활력소가	-13029
▁회사네요	-13030
▁후련하길	-13031
▁후회하고	-13032
▁휴대폰이	-13033
▁흔들리고	-13034
▁흔들리네	-13035
▁희망고문	-13036
▁힘겨울때	-13037
▁힘내라는	-13038
▁힘드네여	-13039
▁힘든가요	-13040
▁힘든거네	-13041
▁힘들기도	-13042
▁힘들어할	-13043
▁힘들텐데	-13044
감상이라고	-13045
나가는거죠	-13046
스럽습니다	-13047
이었을까요	-13048
주려나봐요	-13049
하기로했어	-13050
하나봅니다	-13051
하우스에서	-13052
해야하는걸	-13053
▁가을이네요	-13054
▁가져가세요	-13055
▁각질제거를	-13056
▁간접적으로	-13057
▁갈렸나봐요	-13058
▁감성적이기	-13059
▁감싸주세요	-13060
▁감정기복이	-13061
▁감정소모가	-13062
▁감정이에요	-13063
▁감정조절이	-13064
▁감정컨트롤	-13065
▁갑작스러웠	-13066
▁갔다와야지	-13067
▁강박관념에	-13068
▁강추위래요	-13069
▁개인적으로	-13070
▁거짓말이길	-13071
▁걱정이네요	-13072
▁걱정이에요	-13073
▁게임하세요	-13074
▁게임할때는	-13075
▁견뎌보세요	-13076
▁결심이네요	-13077
▁결정난데요	-13078
▁결혼식이야	-13079
▁결혼하겠대	-13080
▁결혼하세요	-13081
▁결혼해서도	-13082
▁경쟁하겠죠	-13083
▁경제적으로	-13084
▁경험이라고	-13085
▁계절이에요	-13086
▁계획적이고	-13087
▁고기앞이죠	-13088
▁고마운만큼	-13089
▁고민이에요	-13090
▁고시원에서	-13091
▁곤두세우지	-13092
▁곳이라면요	-13093
▁곳인가봐요	-13094
▁공개적으로	-13095
▁공급하려는	-13096
▁공동육아가	-13097
▁공부방법을	-13098
▁공부하면서	-13099
▁공부하자고	-13100
▁공시생인데	-13101
▁공통이에요	-13102
▁공휴일에는	-13103
▁관계입니다	-13104
▁관리해봐요	-13105
▁괜찮다가도	-13106
▁괜찮아지길	-13107
▁괜찮았는데	-13108
▁괜찮은가요	-13109
▁괜찮은거로	-13110
▁구박하지는	-13111
▁구여친이랑	-13112
▁구하셨나요	-13113
▁궁금하다고	-13114
▁귀차니즘을	-13115
▁귀찮아할까	-13116
▁그녀에게도	-13117
▁그럴거예요	-13118
▁그리워하는	-13119
▁그립습니다	-13120
▁그만하는게	-13121
▁극복하거나	-13122
▁근무시간이	-13123
▁금물이에요	-13124
▁금연하세요	-13125
▁긍정적으로	-13126
▁긍정적이고	-13127
▁기다려봐요	-13128
▁기다렸다가	-13129
▁기다리라고	-13130
▁기다리면서	-13131
▁기다리지도	-13132
▁기대로부터	-13133
▁기본이에요	-13134
▁기본인데요	-13135
▁기분전환에	-13136
▁기분전환이	-13137
▁기어오른다	-13138
▁기억해주고	-13139
▁기울여봐요	-13140
▁기울여주고	-13141
▁기특하네요	-13142
▁김치볶음밥	-13143
▁깔끔하겠죠	-13144
▁꿰메보세요	-13145
▁끓여드세요	-13146
▁끝냈습니다	-13147
▁끝인가봐요	-13148
▁끝인거겠죠	-13149
▁끝인거예요	-13150
▁나오겠네요	-13151
▁나이테예요	-13152
▁남겨보세요	-13153
▁남동생한테	-13154
▁남자친구는	-13155
▁내년이라고	-13156
▁내려두세요	-13157
▁내려주세요	-13158
▁내렸나봐요	-13159
▁너무하는게	-13160
▁넘겨보세요	-13161
▁넣어보세요	-13162
▁노려보세요	-13163
▁노력해야죠	-13164
▁녹여보세요	-13165
▁놀아드리고	-13166
▁놀이동산은	-13167
▁높나봅니다	-13168
▁높아집니다	-13169
▁높여보세요	-13170
▁느낀다면요	-13171
▁느낌이네요	-13172
▁느낌이에요	-13173
▁느려지는듯	-13174
▁능력이겠죠	-13175
▁능력이라면	-13176
▁다가가는게	-13177
▁다가가야죠	-13178
▁다가갔네요	-13179
▁다가왔네요	-13180
▁다르니까요	-13181
▁다음달에는	-13182
▁다이렉트로	-13183
▁다이어트를	-13184
▁다짐이에요	-13185
▁다행입니다	-13186
▁달라졌겠죠	-13187
▁달라지겠죠	-13188
▁달랐나봐요	-13189
▁달렸나봐요	-13190
▁달콤하네요	-13191
▁답답하다면	-13192
▁당당해져도	-13193
▁당했나봐요	-13194
▁당했습니다	-13195
▁대수인가요	-13196
▁대체불가한	-13197
▁대화하면서	-13198
▁데려달라고	-13199
▁데이트하기	-13200
▁도망가라는	-13201
▁도서관에서	-13202
▁도와드리면	-13203
▁도와주려는	-13204
▁동감이에요	-13205
▁동의한다면	-13206
▁되시겠어요	-13207
▁되어갑니다	-13208
▁되었겠네요	-13209
▁될수있겠죠	-13210
▁두근거려요	-13211
▁뒤돌아봐도	-13212
▁뒷담화하는	-13213
▁뒹굴거리고	-13214
▁들어가기가	-13215
▁들어가세요	-13216
▁들었나봐요	-13217
▁따라가겠지	-13218
▁따라가려면	-13219
▁따라와주지	-13220
▁딸기잼에게	-13221
▁떠났습니다	-13222
▁뚫어보아요	-13223
▁띄어보세요	-13224
▁레시피대로	-13225
▁로망이네요	-13226
▁로맨틱해요	-13227
▁리폼할거야	-13228
▁마련이지요	-13229
▁마음에서도	-13230
▁마음이란게	-13231
▁막아보세요	-13232
▁만나고왔어	-13233
▁만나보시면	-13234
▁만났는데도	-13235
▁만드나봐요	-13236
▁만들거예요	-13237
▁만들어볼까	-13238
▁만들어야지	-13239
▁만들어주는	-13240
▁많으시군요	-13241
▁많으시네요	-13242
▁많을거예요	-13243
▁말아보셔요	-13244
▁말하는대로	-13245
▁말해달라고	-13246
▁말해보는게	-13247
▁맛있겠네요	-13248
▁맞는거겠죠	-13249
▁맞춰가기도	-13250
▁맞춰주세요	-13251
▁매력이겠죠	-13252
▁머리스타일	-13253
▁머리카락이	-13254
▁머릿속에서	-13255
▁먹었습니다	-13256
▁메모리카드	-13257
▁모르겠는데	-13258
▁모습일지도	-13259
▁모처럼만에	-13260
▁못지우겠네	-13261
▁무덤덤한데	-13262
▁무리하지는	-13263
▁무섭습니다	-13264
▁무소음으로	-13265
▁무엇인가를	-13266
▁무한리필만	-13267
▁문제겠네요	-13268
▁물어보면서	-13269
▁뭐하냐는데	-13270
▁미끄러우니	-13271
▁미루지말고	-13272
▁미안해하는	-13273
▁밑바닥까지	-13274
▁바라봤을때	-13275
▁바쁘더라도	-13276
▁받아들여요	-13277
▁받아들이지	-13278
▁받았습니다	-13279
▁받지마세요	-13280
▁밤인가봐요	-13281
▁방학이예요	-13282
▁배워보세요	-13283
▁버려달라고	-13284
▁버려보세요	-13285
▁버려야겠지	-13286
▁버려야지요	-13287
▁버텨냈어요	-13288
▁변덕스러운	-13289
▁변명보다는	-13290
▁변해가는거	-13291
▁보고싶다고	-13292
▁보고싶어서	-13293
▁보고싶어요	-13294
▁보내겠네요	-13295
▁보답하세요	-13296
▁보셨나봐요	-13297
▁보약이에요	-13298
▁보여보세요	-13299
▁복잡하네요	-13300
▁본거에서는	-13301
▁본받으면서	-13302
▁부담스럽게	-13303
▁부려보세요	-13304
▁부모님만의	-13305
▁부모님이나	-13306
▁부분이에요	-13307
▁부족하지만	-13308
▁부족합니다	-13309
▁분들이에요	-13310
▁분이시군요	-13311
▁불공평해요	-13312
▁불러주세요	-13313
▁불안해하지	-13314
▁붙잡으세요	-13315
▁블록체인이	-13316
▁비워보세요	-13317
▁비정상이야	-13318
▁비틀어져요	-13319
▁비행기표가	-13320
▁비혼주의래	-13321
▁빌려줬는데	-13322
▁빠르시군요	-13323
▁빠졌나봐요	-13324
▁빼앗겼다고	-13325
▁뿌려보세요	-13326
▁뿐이니까요	-13327
▁사과하는게	-13328
▁사과해야죠	-13329
▁사나봅니다	-13330
▁사다리타기	-13331
▁사람들이나	-13332
▁사람들이랑	-13333
▁사람들이요	-13334
▁사람이군요	-13335
▁사람이니까	-13336
▁사람이라고	-13337
▁사람이었어	-13338
▁사람이예요	-13339
▁사람입니다	-13340
▁사람한테만	-13341
▁사랑만으로	-13342
▁사랑이라면	-13343
▁사랑하는게	-13344
▁사랑하면서	-13345
▁사랑해라고	-13346
▁사랑했는데	-13347
▁사랑했다는	-13348
▁사로잡히지	-13349
▁사먹으세요	-13350
▁사실이네요	-13351
▁사야되는데	-13352
▁사회생활로	-13353
▁사회생활을	-13354
▁사회생활의	-13355
▁사회에서도	-13356
▁살아보세요	-13357
▁상대적으로	-13358
▁상대적이죠	-13359
▁생각난다면	-13360
▁생각입니다	-13361
▁생각하기는	-13362
▁생각한다고	-13363
▁생각한다면	-13364
▁생각해주는	-13365
▁생각했나봐	-13366
▁생각했어요	-13367
▁생겼을때는	-13368
▁생일입니다	-13369
▁생활용품이	-13370
▁생활패턴을	-13371
▁샤워하는데	-13372
▁서비스센터	-13373
▁선물이에요	-13374
▁선물해볼까	-13375
▁선생님이나	-13376
▁선생님이요	-13377
▁선생님한테	-13378
▁선택했어요	-13379
▁설레겠어요	-13380
▁설렜나봐요	-13381
▁섬유탈취제	-13382
▁성덕이네요	-13383
▁세상이에요	-13384
▁셀프였으면	-13385
▁셀프웨딩이	-13386
▁소개팅한다	-13387
▁소름돋네요	-13388
▁소액결제를	-13389
▁소화시켜야	-13390
▁속시원해요	-13391
▁속아주세요	-13392
▁손해배상을	-13393
▁솔직했으면	-13394
▁순수하다는	-13395
▁쉬어주세요	-13396
▁쉬워보이나	-13397
▁슈퍼우먼이	-13398
▁습관이라고	-13399
▁시간이지요	-13400
▁시간표대로	-13401
▁시급하네요	-13402
▁시도해봐도	-13403
▁시어머니도	-13404
▁시원하네요	-13405
▁시작됩니다	-13406
▁시작해보면	-13407
▁시켜보세요	-13408
▁시키는데로	-13409
▁식단이네요	-13410
▁식단조절도	-13411
▁식혀주세요	-13412
▁신기하네요	-13413
▁신혼여행은	-13414
▁실수한건가	-13415
▁실수했나요	-13416
▁실천하기는	-13417
▁싫은가봐요	-13418
▁심심하다고	-13419
▁싱숭생숭한	-13420
▁싶은가봐요	-13421
▁쓰리겠어요	-13422
▁쓰셨나봐요	-13423
▁쓸데없어요	-13424
▁씌였나봐요	-13425
▁아니었나요	-13426
▁아니었네요	-13427
▁아무렇게나	-13428
▁아쉽겠어요	-13429
▁아울렛이죠	-13430
▁아이다워야	-13431
▁아이라이너	-13432
▁아줌마들이	-13433
▁아침이에요	-13434
▁아파하면서	-13435
▁아프겠네요	-13436
▁안갈거예요	-13437
▁안나겠어요	-13438
▁안나나봐요	-13439
▁안되겠지만	-13440
▁안되는건가	-13441
▁안읽씹하면	-13442
▁안정적이고	-13443
▁안타까워요	-13444
▁안타깝지만	-13445
▁않았을텐데	-13446
▁않은가봐요	-13447
▁알게되면서	-13448
▁알겠습니다	-13449
▁알아가야죠	-13450
▁알아봐주는	-13451
▁애석하네요	-13452
▁어디서부터	-13453
▁어디있을까	-13454
▁어려서부터	-13455
▁어려우니까	-13456
▁어렵겠지만	-13457
▁어렸을때는	-13458
▁어린가봐요	-13459
▁어색해졌어	-13460
▁어쩔수없죠	-13461
▁엄마아빠랑	-13462
▁업데이트가	-13463
▁없는걸지도	-13464
▁없어가지구	-13465
▁여기까지가	-13466
▁여름이네요	-13467
▁여행지에서	-13468
▁연락이었길	-13469
▁연락하세요	-13470
▁연락했을까	-13471
▁연습하거나	-13472
▁연애세포가	-13473
▁연애였는데	-13474
▁연연해하지	-13475
▁열까지밖에	-13476
▁열어보세요	-13477
▁영원했으면	-13478
▁예뻐보이는	-13479
▁예뻐지나봐	-13480
▁예약하세요	-13481
▁오래됐는데	-13482
▁오려나봐요	-13483
▁오해할만한	-13484
▁올려보세요	-13485
▁올려봅니다	-13486
▁외로우니까	-13487
▁외출하세요	-13488
▁요구하세요	-13489
▁용기내보는	-13490
▁용기내세요	-13491
▁용서하면서	-13492
▁우선순위로	-13493
▁우선순위를	-13494
▁우선순위면	-13495
▁우정이란게	-13496
▁운동하면서	-13497
▁운명인가요	-13498
▁운명일지도	-13499
▁운전하는거	-13500
▁울어보세요	-13501
▁움직이기가	-13502
▁움츠러들지	-13503
▁원하는대로	-13504
▁웨딩드레스	-13505
▁위기이면서	-13506
▁위로봇이요	-13507
▁위험하네요	-13508
▁유머코드가	-13509
▁유의하세요	-13510
▁음료수라도	-13511
▁의미일까요	-13512
▁이겨냈어요	-13513
▁이겨야해요	-13514
▁이끌어주는	-13515
▁이러는걸까	-13516
▁이뤄보아요	-13517
▁이모티콘을	-13518
▁이별이야기	-13519
▁이별하거나	-13520
▁이사람이다	-13521
▁이상형이야	-13522
▁이성으로서	-13523
▁이성이니까	-13524
▁이성친구가	-13525
▁이야기했던	-13526
▁이해하려고	-13527
▁익숙해져서	-13528
▁익숙해지는	-13529
▁인간이라는	-13530
▁인공눈물을	-13531
▁인사해줬어	-13532
▁일반인보다	-13533
▁일부니까요	-13534
▁일인가봐요	-13535
▁일주일만에	-13536
▁있어요라고	-13537
▁잊지마세요	-13538
▁잊지못하고	-13539
▁자괴감에서	-13540
▁자기개발을	-13541
▁자리니까요	-13542
▁자신감있게	-13543
▁자야하는데	-13544
▁자유로워질	-13545
▁자장면이요	-13546
▁작동하는지	-13547
▁잘못이네요	-13548
▁잘생겼어요	-13549
▁잘지내고있	-13550
▁잘지내는지	-13551
▁잘해줬더니	-13552
▁장거리연애	-13553
▁재미있는거	-13554
▁쟁취하세요	-13555
▁저기압에는	-13556
▁저주할거야	-13557
▁적극적이면	-13558
▁적으니까요	-13559
▁전남자친구	-13560
▁전남친이랑	-13561
▁전남친한테	-13562
▁전여자친구	-13563
▁전여친에게	-13564
▁전해졌으면	-13565
▁절약해봐요	-13566
▁접어두는게	-13567
▁정리되었길	-13568
▁정리될지도	-13569
▁정리해야지	-13570
▁정리해야할	-13571
▁정신적으로	-13572
▁제철과일이	-13573
▁조급해하지	-13574
▁졸린가봐요	-13575
▁좋아하나요	-13576
▁좋아하는걸	-13577
▁좋아했지만	-13578
▁좋았겠어요	-13579
▁좋은것만은	-13580
▁좋을거예요	-13581
▁주당이에요	-13582
▁주실거예요	-13583
▁죽을것같아	-13584
▁준비하면서	-13585
▁준비한만큼	-13586
▁중요한데요	-13587
▁중요합니다	-13588
▁증명자료를	-13589
▁증상이에요	-13590
▁지금처럼만	-13591
▁지나가네요	-13592
▁지나갑니다	-13593
▁지나갔네요	-13594
▁지나갔으면	-13595
▁지내봅시다	-13596
▁지냈나봐요	-13597
▁지켜달라고	-13598
▁지켜보기만	-13599
▁지켜보는게	-13600
▁지하철에서	-13601
▁직설적으로	-13602
▁진출해볼까	-13603
▁질문이네요	-13604
▁짝사랑만이	-13605
▁짝사랑인지	-13606
▁쪼잔하네요	-13607
▁찌푸려지죠	-13608
▁찜질방에서	-13609
▁차단하는게	-13610
▁찬성이에요	-13611
▁참석하는게	-13612
▁찾아올거라	-13613
▁챙겨드리고	-13614
▁챙겨보세요	-13615
▁챙겨야해요	-13616
▁챙겼나봐요	-13617
▁처리하세요	-13618
▁청구하세요	-13619
▁초대하려고	-13620
▁최고입니다	-13621
▁최우선이죠	-13622
▁추천해들요	-13623
▁축하해주고	-13624
▁출퇴근하기	-13625
▁충실하세요	-13626
▁취미생활은	-13627
▁취준생인데	-13628
▁치열해지는	-13629
▁치워주세요	-13630
▁친구로서와	-13631
▁침묵하세요	-13632
▁침착해야지	-13633
▁침해당하기	-13634
▁커플여행이	-13635
▁코인노래방	-13636
▁코코넛오일	-13637
▁크시겠네요	-13638
▁타임머신이	-13639
▁태산이에요	-13640
▁태어났어요	-13641
▁태어났으면	-13642
▁투성이에요	-13643
▁트라우마가	-13644
▁평범하면서	-13645
▁표현이에요	-13646
▁프로그램을	-13647
▁필요하겠죠	-13648
▁필요하지요	-13649
▁필요할지도	-13650
▁필요합니다	-13651
▁하겠습니다	-13652
▁하는거같아	-13653
▁하더라고요	-13654
▁하루였나요	-13655
▁하루하루를	-13656
▁하셔야해요	-13657
▁하시겠네요	-13658
▁할인점에서	-13659
▁해결하라고	-13660
▁해놨나봐요	-13661
▁해야하나봐	-13662
▁해줘보세요	-13663
▁핸드폰없이	-13664
▁했나봅니다	-13665
▁행동이냐에	-13666
▁행동일수도	-13667
▁행복일지도	-13668
▁행복해지기	-13669
▁행복해하는	-13670
▁헤어졌다는	-13671
▁헤어지자네	-13672
▁헤어짐에도	-13673
▁헷갈리나요	-13674
▁헹궈보세요	-13675
▁현상입니다	-13676
▁현실이에요	-13677
▁혼내줄게요	-13678
▁혼전순결이	-13679
▁홈쇼핑에서	-13680
▁확인해봐요	-13681
▁효과적일까	-13682
▁효도하세요	-13683
▁효율적으로	-13684
▁후련하네여	-13685
▁후련하다니	-13686
▁후련하달까	-13687
▁흘러가네요	-13688
▁흘러갑니다	-13689
▁힘들게네요	-13690
▁힘들겠지요	-13691
▁힘들어져요	-13692
▁가능하다면요	-13693
▁가벼움이네요	-13694
▁감수해보세요	-13695
▁같이해보세요	-13696
▁갚아나가세요	-13697
▁게임해보세요	-13698
▁결혼하고싶어	-13699
▁결혼해야할까	-13700
▁경쟁해야하고	-13701
▁경험해보세요	-13702
▁고백해도될까	-13703
▁공감해주는게	-13704
▁공유해보세요	-13705
▁관리해주세요	-13706
▁괜찮아졌다가	-13707
▁괜찮아지세요	-13708
▁구멍이니까요	-13709
▁구별해보세요	-13710
▁그런건가봐요	-13711
▁기다렸나봐요	-13712
▁기다리게했어	-13713
▁기다린다는게	-13714
▁기대되겠네요	-13715
▁기분일꺼에요	-13716
▁기초대사량을	-13717
▁기프트콘으로	-13718
▁긴장되겠어요	-13719
▁긴장했나봐요	-13720
▁까먹었나봐요	-13721
▁끊어버리세요	-13722
▁나쁘셨나봐요	-13723
▁난감하겠어요	-13724
▁날려버리시길	-13725
▁남자사람친구	-13726
▁낭만이라고는	-13727
▁내딛으셨네요	-13728
▁내려보는것도	-13729
▁다니시나봐요	-13730
▁다듬기만해도	-13731
▁단계인가봐요	-13732
▁단단해지세요	-13733
▁당당해지세요	-13734
▁당신이니까요	-13735
▁대인배시군요	-13736
▁데려다줬는데	-13737
▁도와주었다고	-13738
▁돈버는사람은	-13739
▁되돌아보세요	-13740
▁뒤따르니까요	-13741
▁득템해오세요	-13742
▁들어올거예요	-13743
▁들어줄거예요	-13744
▁들여다보세요	-13745
▁들이대보세요	-13746
▁디자이너에게	-13747
▁리드해보세요	-13748
▁마무리하시길	-13749
▁마음가는대로	-13750
▁막막하겠네요	-13751
▁만들더라고요	-13752
▁만들어주세요	-13753
▁만족해야겠지	-13754
▁말씀이신가요	-13755
▁말조심하세요	-13756
▁멍때리는것도	-13757
▁모른척하세요	-13758
▁무궁무진해요	-13759
▁무시해주세요	-13760
▁물어보시나요	-13761
▁물어봐보세요	-13762
▁물어주시다니	-13763
▁바라겠습니다	-13764
▁받아들여지지	-13765
▁받아들이는게	-13766
▁받으셨겠어요	-13767
▁받으시나봐요	-13768
▁발급받으세요	-13769
▁방문해보세요	-13770
▁변화시켜봐요	-13771
▁변화해보세요	-13772
▁병행해보세요	-13773
▁보관해보세요	-13774
▁보여드리세요	-13775
▁복원해보세요	-13776
▁복잡하겠네요	-13777
▁복잡했나봐요	-13778
▁볼매인가봐요	-13779
▁부담스러운데	-13780
▁부담스러운지	-13781
▁부족했나봐요	-13782
▁북치기박치기	-13783
▁분석해보세요	-13784
▁분양받으세요	-13785
▁불타올랐다가	-13786
▁비슷한가봐요	-13787
▁빌렸으니까요	-13788
▁빨래해보세요	-13789
▁뻐근한가봐요	-13790
▁사과해보세요	-13791
▁사내커플인데	-13792
▁사람들이군요	-13793
▁사랑이라는건	-13794
▁사랑자격증을	-13795
▁사랑하고싶어	-13796
▁사랑하나봐요	-13797
▁사랑해보세요	-13798
▁사셔야겠어요	-13799
▁삼재인가봐요	-13800
▁상처받는다고	-13801
▁상황인가봐요	-13802
▁생각하셔야죠	-13803
▁생각해주세요	-13804
▁선택해보세요	-13805
▁설명해보세요	-13806
▁섬유유연제나	-13807
▁성공할거예요	-13808
▁성장하나봐요	-13809
▁소개해보세요	-13810
▁속상할거예요	-13811
▁쇼핑해보세요	-13812
▁숙면하겠네요	-13813
▁스릴있겠네요	-13814
▁스타일이네요	-13815
▁스타트업하면	-13816
▁스터디하자고	-13817
▁식습관이에요	-13818
▁식이요법이랑	-13819
▁신경쓰인다고	-13820
▁실행해보세요	-13821
▁심경인가봐요	-13822
▁싱숭생숭해서	-13823
▁아니었을지도	-13824
▁안전거리확보	-13825
▁않을까싶어요	-13826
▁알려주나봐요	-13827
▁알바해보세요	-13828
▁어울려보세요	-13829
▁언제부터인지	-13830
▁여우인가봐요	-13831
▁여자사람친구	-13832
▁여자친구와의	-13833
▁연락하고싶어	-13834
▁연락해보는게	-13835
▁연습해봅시다	-13836
▁연애스타일이	-13837
▁예뻐지겠네요	-13838
▁오락가락해요	-13839
▁올려봐보세요	-13840
▁요리해드세요	-13841
▁요청해보세요	-13842
▁원동력이예요	-13843
▁위로해줄게요	-13844
▁윗몸일으키기	-13845
▁유지해보세요	-13846
▁응원해주세요	-13847
▁이겨야한다는	-13848
▁이루어졌으면	-13849
▁이웃으로부터	-13850
▁이해못하겠어	-13851
▁인정받으려면	-13852
▁일어나보세요	-13853
▁일어났나봐요	-13854
▁일하시나봐요	-13855
▁있어드릴게요	-13856
▁자연스러우면	-13857
▁자유여행이죠	-13858
▁자취한다는데	-13859
▁잘해야하나봐	-13860
▁잘해줘보세요	-13861
▁전여자친구가	-13862
▁전환해보세요	-13863
▁정들었나봐요	-13864
▁조심해야해요	-13865
▁조심했어야죠	-13866
▁조언해주세요	-13867
▁좋아보이네요	-13868
▁좋아하는건가	-13869
▁좋아하시니까	-13870
▁좋아해주세요	-13871
▁좋으시겠어요	-13872
▁주무셨나봐요	-13873
▁주저리주저리	-13874
▁중고서점에서	-13875
▁중요해졌어요	-13876
▁지원해보세요	-13877
▁짝사랑하는게	-13878
▁차단해보세요	-13879
▁찾아가보세요	-13880
▁찾아갔습니다	-13881
▁채워드릴게요	-13882
▁청소해보세요	-13883
▁청춘이어야죠	-13884
▁초기화하는게	-13885
▁추가해보세요	-13886
▁추세더라구요	-13887
▁충전해주세요	-13888
▁취직이나라뇨	-13889
▁치료해보세요	-13890
▁크리스마스가	-13891
▁크리스마스에	-13892
▁타이밍이네요	-13893
▁타이밍입니다	-13894
▁택배기사님들	-13895
▁포기안한다고	-13896
▁포커페이스를	-13897
▁프라이버시를	-13898
▁피부관리까지	-13899
▁필요하시군요	-13900
▁필요했을텐데	-13901
▁하셨나보군요	-13902
▁하우스웨딩이	-13903
▁한순간이예요	-13904
▁해결해주지는	-13905
▁행복해보여요	-13906
▁행복해지세요	-13907
▁행복해지시길	-13908
▁행복해질려고	-13909
▁현금영수증은	-13910
▁후회하겠네요	-13911
▁흔들리겠어요	-13912
▁희망적이에요	-13913
▁힘드셨겠어요	-13914
▁힘드시겠네요	-13915
▁힘들어졌어요	-13916
▁가벼워질거예요	-13917
▁감기조심하세요	-13918
▁갑작스럽겠네요	-13919
▁강림했나봅니다	-13920
▁거짓말이겠지요	-13921
▁건강습관이네요	-13922
▁건강습관이에요	-13923
▁건들이지마세요	-13924
▁결정이었겠어요	-13925
▁결정이었나봐요	-13926
▁공기정화식물도	-13927
▁궁금하더라고요	-13928
▁기다려지겠네요	-13929
▁기분나쁘겠어요	-13930
▁날이었나봅니다	-13931
▁두근거리겠네요	-13932
▁모으시는거예요	-13933
▁물어보고싶네요	-13934
▁미끄러질뻔했어	-13935
▁발전시켜보세요	-13936
▁백업해놓으세요	-13937
▁보고싶었나봐요	-13938
▁부담스러워하진	-13939
▁사람이었는가를	-13940
▁사랑했으니까요	-13941
▁사춘기로부터의	-13942
▁상종하지마세요	-13943
▁상처받았나봐요	-13944
▁생각할수있어요	-13945
▁생각해드릴게요	-13946
▁소개시켜주세요	-13947
▁수학여행가는데	-13948
▁시간이었을거라	-13949
▁시기였을거예요	-13950
▁신경쓰지마세요	-13951
▁아니셨을거예요	-13952
▁아니었나봅니다	-13953
▁알아주실거예요	-13954
▁앞머리만이라도	-13955
▁애정표현이라고	-13956
▁엮여있는거예요	-13957
▁연락드려보세요	-13958
▁오지랖이었으면	-13959
▁유행하고있어요	-13960
▁음악감상이라고	-13961
▁이야기해주세요	-13962
▁이어나가니까요	-13963
▁이해해줘야할까	-13964
▁익숙해질거예요	-13965
▁인지시켜보세요	-13966
▁잊혀지더라고요	-13967
▁자유로워지세요	-13968
▁자책하지마세요	-13969
▁잔소리해보세요	-13970
▁저평가되어있는	-13971
▁좋아졌나봅니다	-13972
▁좋아하시나봐요	-13973
▁좌절하지마세요	-13974
▁준비하는방법이	-13975
▁채워나가는거죠	-13976
▁초록초록하네요	-13977
▁크리스마스에는	-13978
▁포기하지마세요	-13979
▁프라이버시니까	-13980
▁피곤하신가봐요	-13981
▁필요해보이네요	-13982
▁하게하고싶은데	-13983
▁허례허식이에요	-13984
▁허전하시겠어요	-13985
▁허전하신가봐요	-13986
▁헤어져야하는게	-13987
▁간질간질한가봐요	-13988
▁갑작스러웠나봐요	-13989
▁게스트하우스에서	-13990
▁궁금해하지마세요	-13991
▁데려다주려나봐요	-13992
▁발렌타인데이인데	-13993
▁사춘기인가봅니다	-13994
▁소개시켜드릴게요	-13995
▁소개팅하기로했어	-13996
▁수면양말인가봐요	-13997
▁스트레칭해주세요	-13998
▁인연이었나봅니다	-13999
▁질척거리지마세요	-14000
▁안전거리확보하세요	-14001
65	-14002
XX	-14003
▁놨	-14004
▁던	-14005
▁덤	-14006
▁뜰	-14007
▁쎄	-14008
▁육	-14009
▁을	-14010
▁쩔	-14011
▁춤	-14012
▁콘	-14013
▁흡	-14014
▁힐	-14015
가간	-14016
가까	-14017
가물	-14018
가슴	-14019
가자	-14020
각은	-14021
간히	-14022
감수	-14023
갔지	-14024
같습	-14025
거는	-14026
거랑	-14027
거운	-14028
거울	-14029
걸알	-14030
것이	-14031
게도	-14032
겠는	-14033
겠져	-14034
결정	-14035
경해	-14036
고만	-14037
고자	-14038
곳도	-14039
곳에	-14040
곳이	-14041
공간	-14042
공장	-14043
괜찮	-14044
국어	-14045
귀가	-14046
극복	-14047
근데	-14048
근처	-14049
금됐	-14050
급기	-14051
기싫	-14052
긴거	-14053
긴게	-14054
김치	-14055
꺼워	-14056
껴서	-14057
꼬는	-14058
꾸러	-14059
꾼거	-14060
꿈에	-14061
끼고	-14062
나기	-14063
나만	-14064
나바	-14065
나씩	-14066
나와	-14067
나의	-14068
나지	-14069
날까	-14070
날씨	-14071
날이	-14072
날일	-14073
남지	-14074
내요	-14075
냐면	-14076
너건	-14077
녀랑	-14078
녀를	-14079
년된	-14080
놀아	-14081
놀이	-14082
느껴	-14083
느낌	-14084
느냐	-14085
는건	-14086
는대	-14087
능력	-14088
니고	-14089
니냐	-14090
니라	-14091
닝복	-14092
다를	-14093
다주	-14094
다한	-14095
닦아	-14096
답답	-14097
대를	-14098
대비	-14099
▁닿	-14100
가길	-14101
견디	-14102
긴나	-14103
깝게	-14104
대에	-14105
던걸	-14106
독주	-14107
돌이	-14108
동본	-14109
동사	-14110
동욱	-14111
돼요	-14112
되나	-14113
될듯	-14114
드는	-14115
드려	-14116
드의	-14117
든게	-14118
듣고	-14119
듣는	-14120
들고	-14121
들다	-14122
들면	-14123
디나	-14124
때도	-14125
때매	-14126
때의	-14127
똑똑	-14128
뜨문	-14129
띠동	-14130
라나	-14131
란일	-14132
랬어	-14133
러지	-14134
럽네	-14135
렀네	-14136
레기	-14137
려다	-14138
려보	-14139
로가	-14140
로소	-14141
로에	-14142
로울	-14143
르듯	-14144
르팍	-14145
를뿐	-14146
름에	-14147
리내	-14148
린거	-14149
립이	-14150
마무	-14151
마셔	-14152
막혀	-14153
만근	-14154
많이	-14155
말아	-14156
말에	-14157
말지	-14158
말투	-14159
말해	-14160
맘이	-14161
먹길	-14162
먹는	-14163
먹은	-14164
먹일	-14165
모두	-14166
모르	-14167
모임	-14168
목은	-14169
못이	-14170
못한	-14171
문자	-14172
물은	-14173
미죠	-14174
미칠	-14175
밀히	-14176
바라	-14177
바지	-14178
반짝	-14179
받네	-14180
발한	-14181
밤에	-14182
밤이	-14183
법을	-14184
법이	-14185
별로	-14186
보기	-14187
보며	-14188
보세	-14189
보이	-14190
복한	-14191
봐봐	-14192
봐서	-14193
봤던	-14194
부모	-14195
분에	-14196
불쑥	-14197
불이	-14198
비전	-14199
곳올	-14200
꺼라	-14201
내지	-14202
느끼	-14203
더워	-14204
두지	-14205
떠나	-14206
말걸	-14207
바늘	-14208
바심	-14209
발해	-14210
번에	-14211
빠져	-14212
빨리	-14213
뿐만	-14214
사해	-14215
살랑	-14216
상은	-14217
상태	-14218
상편	-14219
생일	-14220
서로	-14221
서방	-14222
서진	-14223
선수	-14224
성은	-14225
소비	-14226
수는	-14227
수지	-14228
술나	-14229
슬쩍	-14230
시고	-14231
시기	-14232
시로	-14233
시점	-14234
시할	-14235
시험	-14236
신대	-14237
신히	-14238
실수	-14239
싫다	-14240
심코	-14241
썸이	-14242
쓰기	-14243
쓸까	-14244
아갈	-14245
아닌	-14246
아도	-14247
아들	-14248
아픔	-14249
안일	-14250
않네	-14251
않아	-14252
않았	-14253
않을	-14254
았나	-14255
앞에	-14256
애가	-14257
얘기	-14258
어게	-14259
어난	-14260
어내	-14261
어리	-14262
어볼	-14263
억이	-14264
언제	-14265
없다	-14266
없을	-14267
었으	-14268
여여	-14269
여유	-14270
연락	-14271
연예	-14272
염되	-14273
염둥	-14274
영화	-14275
예감	-14276
오라	-14277
온데	-14278
용해	-14279
우보	-14280
울만	-14281
울컥	-14282
월드	-14283
웠네	-14284
위기	-14285
위로	-14286
위터	-14287
위해	-14288
유가	-14289
을게	-14290
이거	-14291
이를	-14292
이브	-14293
이서	-14294
이유	-14295
인생	-14296
일거	-14297
일시	-14298
일에	-14299
▁띰	-14300
글남	-14301
도와	-14302
두번	-14303
든다	-14304
듣기	-14305
들여	-14306
려니	-14307
먹자	-14308
방에	-14309
봤네	-14310
부림	-14311
석이	-14312
앨범	-14313
왔을	-14314
원을	-14315
일짜	-14316
일한	-14317
있던	-14318
있으	-14319
잊고	-14320
잊어	-14321
자신	-14322
잔한	-14323
잘못	-14324
잠깐	-14325
잠을	-14326
잤어	-14327
장님	-14328
전공	-14329
전하	-14330
절해	-14331
정류	-14332
제로	-14333
젠가	-14334
져도	-14335
져야	-14336
조선	-14337
조언	-14338
졸려	-14339
좋은	-14340
주반	-14341
주죠	-14342
줄게	-14343
중인	-14344
중한	-14345
즈아	-14346
즈피	-14347
증은	-14348
지나	-14349
지내	-14350
지진	-14351
직장	-14352
직할	-14353
진짜	-14354
진행	-14355
질만	-14356
집착	-14357
짝남	-14358
쫄음	-14359
차랑	-14360
차리	-14361
착한	-14362
창이	-14363
창한	-14364
창회	-14365
찾기	-14366
처러	-14367
쳐져	-14368
쳐진	-14369
쳐질	-14370
축제	-14371
축하	-14372
춘거	-14373
취미	-14374
치면	-14375
치법	-14376
치치	-14377
치페	-14378
칠때	-14379
카노	-14380
카톡	-14381
카페	-14382
커피	-14383
커홀	-14384
켜서	-14385
코가	-14386
코렛	-14387
콤한	-14388
키울	-14389
탔났	-14390
티를	-14391
티브	-14392
퍼센	-14393
편할	-14394
푸석	-14395
퓨저	-14396
프레	-14397
프사	-14398
픈데	-14399
개가	-14400
구는	-14401
기울	-14402
끊었	-14403
남은	-14404
넘어	-14405
던히	-14406
되긴	-14407
려자	-14408
벌이	-14409
성형	-14410
슬퍼	-14411
심장	-14412
쑥쑥	-14413
앗어	-14414
었죠	-14415
왕자	-14416
으러	-14417
져간	-14418
하ᅮ	-14419
하거	-14420
하늘	-14421
하듯	-14422
하라	-14423
하세	-14424
할거	-14425
할데	-14426
해낼	-14427
해볼	-14428
해봐	-14429
해소	-14430
해줬	-14431
했고	-14432
호를	-14433
후가	-14434
흡연	-14435
히러	-14436
힌듯	-14437
▁가망	-14438
▁가물	-14439
▁가질	-14440
▁갔네	-14441
▁갔을	-14442
▁같고	-14443
▁같았	-14444
▁같을	-14445
▁개불	-14446
▁개학	-14447
▁걷는	-14448
▁걸게	-14449
▁결론	-14450
▁결말	-14451
▁계정	-14452
▁고놈	-14453
▁고요	-14454
▁고쳤	-14455
▁구역	-14456
▁구제	-14457
▁귀국	-14458
▁그에	-14459
▁그와	-14460
▁글에	-14461
▁금기	-14462
▁기빨	-14463
▁깜놀	-14464
▁깨가	-14465
▁꺼져	-14466
▁꿈과	-14467
▁꿈속	-14468
▁끊을	-14469
▁끝낸	-14470
▁나내	-14471
▁나른	-14472
▁나보	-14473
▁나위	-14474
▁나죠	-14475
▁내년	-14476
▁내든	-14477
▁넓은	-14478
▁넘나	-14479
▁넘쳐	-14480
▁넣어	-14481
▁네일	-14482
▁노나	-14483
▁노메	-14484
▁놀램	-14485
▁느리	-14486
▁니멋	-14487
▁다냐	-14488
▁다름	-14489
▁다섯	-14490
▁다잊	-14491
▁다함	-14492
▁닦아	-14493
▁달랬	-14494
▁담기	-14495
▁답할	-14496
▁대외	-14497
▁대판	-14498
▁더위	-14499
▁긋	-14500
공개	-14501
다던	-14502
다툼	-14503
두는	-14504
린대	-14505
밀어	-14506
배달	-14507
뻤어	-14508
스야	-14509
심과	-14510
았길	-14511
여ᅲ	-14512
진아	-14513
질거	-14514
차피	-14515
터짐	-14516
평해	-14517
▁건냈	-14518
▁긋는	-14519
▁깊숙	-14520
▁덜덜	-14521
▁덜해	-14522
▁덮을	-14523
▁데로	-14524
▁데이	-14525
▁도는	-14526
▁독감	-14527
▁돌이	-14528
▁돼라	-14529
▁됐나	-14530
▁됐내	-14531
▁됐든	-14532
▁되도	-14533
▁되진	-14534
▁될거	-14535
▁두면	-14536
▁둘래	-14537
▁뒤엔	-14538
▁들음	-14539
▁들죠	-14540
▁들킨	-14541
▁디테	-14542
▁따면	-14543
▁떠냐	-14544
▁떴다	-14545
▁로비	-14546
▁마인	-14547
▁막혔	-14548
▁만담	-14549
▁만두	-14550
▁많터	-14551
▁망고	-14552
▁먹냐	-14553
▁먹네	-14554
▁먹자	-14555
▁먹히	-14556
▁명을	-14557
▁명치	-14558
▁모텔	-14559
▁묘해	-14560
▁무감	-14561
▁묻노	-14562
▁물걸	-14563
▁물질	-14564
▁뭐냐	-14565
▁뭐입	-14566
▁미는	-14567
▁미드	-14568
▁미지	-14569
▁밉다	-14570
▁바랐	-14571
▁받죠	-14572
▁발신	-14573
▁밤은	-14574
▁밤을	-14575
▁방이	-14576
▁번이	-14577
▁벌려	-14578
▁법은	-14579
▁베지	-14580
▁변치	-14581
▁별똥	-14582
▁별일	-14583
▁보네	-14584
▁보듬	-14585
▁보래	-14586
▁봐버	-14587
▁부딛	-14588
▁부터	-14589
▁붙일	-14590
▁빈자	-14591
▁빠짐	-14592
▁빨간	-14593
▁뺏길	-14594
▁사게	-14595
▁사소	-14596
▁사흘	-14597
▁살만	-14598
▁삼십	-14599
▁석	-14600
경은	-14601
구려	-14602
굴에	-14603
급은	-14604
기능	-14605
날짜	-14606
네ᄒ	-14607
니의	-14608
닉에	-14609
다의	-14610
리여	-14611
시니	-14612
어찌	-14613
없고	-14614
에선	-14615
운전	-14616
이불	-14617
자야	-14618
지쳐	-14619
찍어	-14620
차례	-14621
취직	-14622
풋풋	-14623
할줄	-14624
▁길죠	-14625
▁나두	-14626
▁뒤집	-14627
▁등교	-14628
▁말에	-14629
▁먹통	-14630
▁명도	-14631
▁본능	-14632
▁생가	-14633
▁생명	-14634
▁생선	-14635
▁서면	-14636
▁석박	-14637
▁세운	-14638
▁소오	-14639
▁소통	-14640
▁손질	-14641
▁숨은	-14642
▁스윗	-14643
▁시러	-14644
▁시련	-14645
▁싫을	-14646
▁싶아	-14647
▁써도	-14648
▁썸과	-14649
▁썸끝	-14650
▁썼네	-14651
▁아따	-14652
▁아르	-14653
▁아오	-14654
▁아푸	-14655
▁안겨	-14656
▁안꾸	-14657
▁안대	-14658
▁안됨	-14659
▁안바	-14660
▁안선	-14661
▁안쪽	-14662
▁안함	-14663
▁안힘	-14664
▁않음	-14665
▁알죠	-14666
▁야한	-14667
▁양심	-14668
▁어김	-14669
▁억제	-14670
▁얻을	-14671
▁업고	-14672
▁없었	-14673
▁에쁘	-14674
▁에혀	-14675
▁연극	-14676
▁오냐	-14677
▁온대	-14678
▁올거	-14679
▁올때	-14680
▁옳고	-14681
▁왜제	-14682
▁운세	-14683
▁울라	-14684
▁원점	-14685
▁이글	-14686
▁이닦	-14687
▁이따	-14688
▁이럽	-14689
▁이만	-14690
▁이민	-14691
▁이뻤	-14692
▁이주	-14693
▁이케	-14694
▁일본	-14695
▁일해	-14696
▁입냐	-14697
▁입원	-14698
▁있긴	-14699
PP	-14700
고통	-14701
꿨대	-14702
내리	-14703
넘은	-14704
니는	-14705
덥지	-14706
돌까	-14707
되가	-14708
십년	-14709
쐬러	-14710
어린	-14711
월이	-14712
으란	-14713
저그	-14714
▁PP	-14715
▁개가	-14716
▁끊은	-14717
▁맘의	-14718
▁멍충	-14719
▁명과	-14720
▁방정	-14721
▁십년	-14722
▁썸에	-14723
▁으휴	-14724
▁이날	-14725
▁있든	-14726
▁자소	-14727
▁잔해	-14728
▁잠와	-14729
▁장래	-14730
▁재결	-14731
▁재수	-14732
▁저였	-14733
▁전날	-14734
▁점프	-14735
▁접는	-14736
▁제자	-14737
▁조성	-14738
▁주라	-14739
▁주문	-14740
▁주저	-14741
▁주행	-14742
▁지인	-14743
▁직구	-14744
▁진다	-14745
▁진해	-14746
▁짓을	-14747
▁짧고	-14748
▁짧아	-14749
▁쭉쭉	-14750
▁찍혔	-14751
▁차있	-14752
▁책상	-14753
▁척이	-14754
▁친다	-14755
▁커졌	-14756
▁커풀	-14757
▁코딩	-14758
▁타긴	-14759
▁타든	-14760
▁타요	-14761
▁트레	-14762
▁특종	-14763
▁파란	-14764
▁판정	-14765
▁평이	-14766
▁하얘	-14767
▁하자	-14768
▁한이	-14769
▁한쪽	-14770
▁한테	-14771
▁한폭	-14772
▁해놔	-14773
▁해몽	-14774
▁해본	-14775
▁해온	-14776
▁핸폰	-14777
▁했니	-14778
▁했더	-14779
▁행적	-14780
▁확정	-14781
▁환장	-14782
▁홧병	-14783
▁후우	-14784
▁휘리	-14785
▁휘청	-14786
가슴이	-14787
같은게	-14788
같은데	-14789
개월여	-14790
거라고	-14791
거려보	-14792
거리는	-14793
거였나	-14794
거해서	-14795
건가바	-14796
꺼같네	-14797
꿔볼까	-14798
년가까	-14799
떨고	-14800
뛰어	-14801
뜨려	-14802
랜드	-14803
반복	-14804
볼때	-14805
시나	-14806
았을	-14807
애인	-14808
었고	-14809
자인	-14810
젠장	-14811
족냉	-14812
▁과대	-14813
▁나뿐	-14814
▁낳기	-14815
▁목돈	-14816
▁벌어	-14817
▁아메	-14818
▁않니	-14819
▁여는	-14820
▁젠장	-14821
▁티냄	-14822
년연예	-14823
년이면	-14824
념하게	-14825
놨네요	-14826
누여자	-14827
느껴진	-14828
는거니	-14829
는거에	-14830
는그런	-14831
는정말	-14832
님에게	-14833
다는대	-14834
다는말	-14835
닥이야	-14836
달째에	-14837
당했네	-14838
대로는	-14839
더라면	-14840
던가요	-14841
던데요	-14842
데월드	-14843
도노력	-14844
독주택	-14845
됐나봐	-14846
되겠죠	-14847
되는군	-14848
되는지	-14849
된걸까	-14850
두는게	-14851
들어서	-14852
라는건	-14853
라이가	-14854
런거죠	-14855
려고는	-14856
려하니	-14857
련하네	-14858
리는거	-14859
리마스	-14860
만이래	-14861
만하게	-14862
말하지	-14863
맘일까	-14864
맙시다	-14865
못하고	-14866
문뜨문	-14867
미니까	-14868
미세먼	-14869
바이트	-14870
바지의	-14871
박하고	-14872
밖에는	-14873
버랜드	-14874
보냈어	-14875
보네요	-14876
보다긴	-14877
보러가	-14878
보았어	-14879
봤으면	-14880
봤지요	-14881
부르니	-14882
부리는	-14883
불능에	-14884
빈건가	-14885
빠지네	-14886
생이야	-14887
수전공	-14888
시지가	-14889
시처럼	-14890
신으로	-14891
싶다는	-14892
아시나	-14893
아졌어	-14894
안돼네	-14895
았으니	-14896
았을까	-14897
야하는	-14898
언이야	-14899
▁c	-14900
가니	-14901
가죠	-14902
같데	-14903
건히	-14904
도에	-14905
마니	-14906
만두	-14907
모닝	-14908
번쯤	-14909
붙였	-14910
사한	-14911
상종	-14912
용량	-14913
울증	-14914
정지	-14915
중심	-14916
지워	-14917
페메	-14918
▁cc	-14919
▁강원	-14920
▁걷지	-14921
▁다만	-14922
▁상영	-14923
▁쓰담	-14924
▁이가	-14925
▁크죠	-14926
▁학번	-14927
까지만	-14928
러가면	-14929
만번쯤	-14930
숨까지	-14931
안지워	-14932
얼하네	-14933
없는데	-14934
었겠죠	-14935
었는지	-14936
▁	-14937
.	-14938
요	-14939
이	-14940
어	-14941
는	-14942
하	-14943
0	-14944
아	-14945
가	-14946
지	-14947
다	-14948
해	-14949
고	-14950
1	-14951
세	-14952
을	-14953
나	-14954
사	-14955
2	-14956
보	-14957
도	-14958
거	-14959
게	-14960
좋	-14961
에	-14962
자	-14963
있	-14964
은	-14965
기	-14966
면	-14967
한	-14968
까	-14969
?	-14970
네	-14971
만	-14972
니	-14973
데	-14974
마	-14975
랑	-14976
예	-14977
서	-14978
그	-14979
겠	-14980
로	-14981
시	-14982
리	-14983
들	-14984
람	-14985
생	-14986
인	-14987
무	-14988
라	-14989
일	-14990
수	-14991
야	-14992
같	-14993
남	-14994
안	-14995
할	-14996
친	-14997
정	-14998
연	-14999
를	-15000
구	-15001
으	-15002
말	-15003
여	-15004
주	-15005
내	-15006
봐	-15007
의	-15008
죠	-15009
음	-15010
없	-15011
싶	-15012
각	-15013
제	-15014
신	-15015
것	-15016
려	-15017
오	-15018
잘	-15019
힘	-15020
너	-15021
대	-15022
상	-15023
간	-15024
많	-15025
별	-15026
더	-15027
바	-15028
않	-15029
했	-15030
스	-15031
진	-15032
부	-15033
되	-15034
애	-15035
전	-15036
드	-15037
락	-15038
었	-15039
건	-15040
저	-15041
때	-15042
모	-15043
헤	-15044
금	-15045
중	-15046
심	-15047
짝	-15048
운	-15049
화	-15050
길	-15051
썸	-15052
혼	-15053
비	-15054
워	-15055
못	-15056
러	-15057
장	-15058
물	-15059
미	-15060
적	-15061
분	-15062
알	-15063
감	-15064
먹	-15065
히	-15066
걸	-15067
습	-15068
래	-15069
당	-15070
우	-15071
받	-15072
테	-15073
행	-15074
결	-15075
소	-15076
선	-15077
달	-15078
날	-15079
르	-15080
직	-15081
좀	-15082
후	-15083
살	-15084
조	-15085
회	-15086
관	-15087
!	-15088
늘	-15089
았	-15090
타	-15091
돼	-15092
든	-15093
방	-15094
될	-15095
동	-15096
녀	-15097
실	-15098
복	-15099
차	-15100
과	-15101
질	-15102
뭐	-15103
른	-15104
찮	-15105
공	-15106
와	-15107
트	-15108
끝	-15109
괜	-15110
속	-15111
원	-15112
계	-15113
처	-15114
치	-15115
필	-15116
잊	-15117
두	-15118
집	-15119
문	-15120
귀	-15121
유	-15122
편	-15123
난	-15124
준	-15125
재	-15126
졌	-15127
경	-15128
런	-15129
던	-15130
답	-15131
줄	-15132
성	-15133
울	-15134
피	-15135
왜	-15136
년	-15137
렇	-15138
식	-15139
떻	-15140
느	-15141
꾸	-15142
볼	-15143
져	-15144
개	-15145
위	-15146
버	-15147
왔	-15148
떨	-15149
입	-15150
현	-15151
작	-15152
배	-15153
번	-15154
노	-15155
눈	-15156
새	-15157
맞	-15158
언	-15159
추	-15160
났	-15161
짜	-15162
또	-15163
법	-15164
잠	-15165
프	-15166
올	-15167
단	-15168
민	-15169
참	-15170
함	-15171
쓰	-15172
학	-15173
디	-15174
따	-15175
싫	-15176
력	-15177
줘	-15178
확	-15179
반	-15180
찾	-15181
겨	-15182
변	-15183
잡	-15184
담	-15185
쉬	-15186
억	-15187
카	-15188
능	-15189
점	-15190
갈	-15191
터	-15192
먼	-15193
얼	-15194
합	-15195
근	-15196
용	-15197
통	-15198
매	-15199
표	-15200
놀	-15201
술	-15202
천	-15203
절	-15204
레	-15205
련	-15206
백	-15207
누	-15208
럴	-15209
돌	-15210
머	-15211
불	-15212
맛	-15213
루	-15214
릴	-15215
발	-15216
긴	-15217
몰	-15218
호	-15219
듯	-15220
움	-15221
봅	-15222
꿈	-15223
충	-15224
랄	-15225
교	-15226
막	-15227
톡	-15228
청	-15229
파	-15230
약	-15231
접	-15232
증	-15233
영	-15234
돈	-15235
군	-15236
됐	-15237
취	-15238
싸	-15239
월	-15240
젠	-15241
큼	-15242
강	-15243
놓	-15244
닌	-15245
명	-15246
빠	-15247
째	-15248
곳	-15249
된	-15250
랍	-15251
외	-15252
떠	-15253
망	-15254
쁜	-15255
택	-15256
겼	-15257
믿	-15258
순	-15259
쉽	-15260
크	-15261
걱	-15262
국	-15263
임	-15264
갑	-15265
께	-15266
름	-15267
커	-15268
씩	-15269
업	-15270
맘	-15271
셨	-15272
앞	-15273
축	-15274
키	-15275
럽	-15276
였	-15277
온	-15278
,	-15279
열	-15280
폰	-15281
황	-15282
짐	-15283
설	-15284
휴	-15285
냥	-15286
슨	-15287
침	-15288
텐	-15289
뭘	-15290
쁘	-15291
슬	-15292
3	-15293
떤	-15294
럼	-15295
님	-15296
엄	-15297
궁	-15298
렸	-15299
최	-15300
허	-15301
켜	-15302
혀	-15303
착	-15304
쳐	-15305
출	-15306
태	-15307
양	-15308
격	-15309
족	-15310
험	-15311
급	-15312
록	-15313
잔	-15314
깨	-15315
존	-15316
포	-15317
갔	-15318
늦	-15319
린	-15320
환	-15321
즐	-15322
픈	-15323
형	-15324
ᅲ	-15325
몸	-15326
죽	-15327
체	-15328
떡	-15329
본	-15330
벌	-15331
책	-15332
극	-15333
냐	-15334
덜	-15335
산	-15336
종	-15337
챙	-15338
풀	-15339
목	-15340
써	-15341
첫	-15342
넘	-15343
플	-15344
란	-15345
항	-15346
멋	-15347
완	-15348
찍	-15349
티	-15350
낌	-15351
뿐	-15352
팅	-15353
향	-15354
붙	-15355
밥	-15356
셔	-15357
웃	-15358
견	-15359
응	-15360
초	-15361
활	-15362
글	-15363
손	-15364
평	-15365
끔	-15366
꼭	-15367
맨	-15368
숙	-15369
씨	-15370
폭	-15371
흘	-15372
즘	-15373
큰	-15374
탈	-15375
굴	-15376
뜻	-15377
줬	-15378
투	-15379
~	-15380
욕	-15381
짓	-15382
낼	-15383
닐	-15384
색	-15385
씀	-15386
곤	-15387
둘	-15388
봤	-15389
빨	-15390
뻐	-15391
뭔	-15392
솔	-15393
페	-15394
5	-15395
슴	-15396
풍	-15397
메	-15398
밀	-15399
코	-15400
꽃	-15401
병	-15402
척	-15403
냈	-15404
딱	-15405
똑	-15406
몇	-15407
졸	-15408
핸	-15409
껴	-15410
밤	-15411
며	-15412
벽	-15413
4	-15414
픔	-15415
독	-15416
찬	-15417
쳤	-15418
갖	-15419
듣	-15420
랐	-15421
림	-15422
옷	-15423
덤	-15424
밌	-15425
랜	-15426
승	-15427
역	-15428
짧	-15429
퇴	-15430
괴	-15431
끊	-15432
밖	-15433
봄	-15434
쓸	-15435
익	-15436
칭	-15437
핑	-15438
S	-15439
뒤	-15440
빼	-15441
펴	-15442
흐	-15443
6	-15444
꺼	-15445
료	-15446
박	-15447
베	-15448
빌	-15449
숨	-15450
악	-15451
칠	-15452
웠	-15453
흔	-15454
끼	-15455
얘	-15456
엇	-15457
깐	-15458
녕	-15459
득	-15460
렵	-15461
롭	-15462
렀	-15463
멀	-15464
깊	-15465
뎌	-15466
춰	-15467
케	-15468
곧	-15469
골	-15470
낫	-15471
석	-15472
높	-15473
삶	-15474
읽	-15475
잖	-15476
찌	-15477
채	-15478
헷	-15479
념	-15480
등	-15481
멍	-15482
숭	-15483
염	-15484
킨	-15485
퍼	-15486
꼬	-15487
냉	-15488
철	-15489
s	-15490
겁	-15491
꿨	-15492
뜨	-15493
벗	-15494
창	-15495
탁	-15496
끄	-15497
맥	-15498
섭	-15499
쇼	-15500
쩌	-15501
쯤	-15502
판	-15503
꿀	-15504
덧	-15505
션	-15506
십	-15507
클	-15508
특	-15509
ᄒ	-15510
덕	-15511
북	-15512
센	-15513
옆	-15514
팔	-15515
효	-15516
랬	-15517
례	-15518
립	-15519
뻔	-15520
엔	-15521
쟁	-15522
쩔	-15523
틀	-15524
틱	-15525
품	-15526
헛	-15527
ᅮ	-15528
김	-15529
깝	-15530
꿔	-15531
놈	-15532
딩	-15533
류	-15534
밍	-15535
삼	-15536
콩	-15537
패	-15538
희	-15539
권	-15540
냄	-15541
멈	-15542
싱	-15543
쌓	-15544
육	-15545
낭	-15546
땐	-15547
론	-15548
릿	-15549
삭	-15550
샀	-15551
엽	-15552
죄	-15553
즈	-15554
걷	-15555
놔	-15556
눠	-15557
됩	-15558
량	-15559
셀	-15560
턴	-15561
텨	-15562
토	-15563
획	-15564
귄	-15565
됨	-15566
브	-15567
뿌	-15568
액	-15569
7	-15570
N	-15571
깍	-15572
깔	-15573
뀌	-15574
녁	-15575
닥	-15576
벼	-15577
봇	-15578
웨	-15579
푸	-15580
혹	-15581
8	-15582
뀔	-15583
끈	-15584
뉴	-15585
뒷	-15586
듭	-15587
쐬	-15588
잤	-15589
흡	-15590
귈	-15591
긍	-15592
꼼	-15593
농	-15594
둬	-15595
딸	-15596
슷	-15597
썼	-15598
옴	-15599
컨	-15600
흥	-15601
갚	-15602
깜	-15603
끌	-15604
닫	-15605
렌	-15606
블	-15607
쓴	-15608
씹	-15609
왕	-15610
춥	-15611
콜	-15612
푹	-15613
ᄏ	-15614
걔	-15615
곰	-15616
규	-15617
낮	-15618
넌	-15619
넣	-15620
딴	-15621
뛰	-15622
링	-15623
뽑	-15624
씻	-15625
쪽	-15626
찰	-15627
춘	-15628
칼	-15629
컴	-15630
9	-15631
n	-15632
값	-15633
곁	-15634
깎	-15635
끗	-15636
낸	-15637
널	-15638
듬	-15639
렘	-15640
맙	-15641
몽	-15642
밝	-15643
봉	-15644
빛	-15645
빡	-15646
옥	-15647
잃	-15648
첩	-15649
콘	-15650
콤	-15651
탄	-15652
탔	-15653
헬	-15654
혔	-15655
겹	-15656
껏	-15657
꾹	-15658
닉	-15659
딪	-15660
랫	-15661
룩	-15662
뤄	-15663
맡	-15664
벚	-15665
빈	-15666
샤	-15667
앉	-15668
잇	-15669
탕	-15670
털	-15671
힌	-15672
검	-15673
낀	-15674
납	-15675
넓	-15676
녹	-15677
닮	-15678
둔	-15679
땀	-15680
땅	-15681
띄	-15682
롱	-15683
벤	-15684
엉	-15685
잼	-15686
짠	-15687
찔	-15688
콕	-15689
툰	-15690
팍	-15691
A	-15692
낄	-15693
늙	-15694
땡	-15695
뚝	-15696
렬	-15697
령	-15698
뢰	-15699
볶	-15700
빵	-15701
뻑	-15702
뽀	-15703
쁠	-15704
섬	-15705
씁	-15706
압	-15707
얻	-15708
왤	-15709
웬	-15710
젖	-15711
짱	-15712
킁	-15713
템	-15714
푼	-15715
햇	-15716
훈	-15717
객	-15718
곡	-15719
긋	-15720
꼈	-15721
꽤	-15722
끓	-15723
낙	-15724
낳	-15725
뒀	-15726
뜰	-15727
뱃	-15728
송	-15729
싼	-15730
쌩	-15731
앗	-15732
징	-15733
쩍	-15734
쪄	-15735
쪼	-15736
찼	-15737
춤	-15738
층	-15739
켠	-15740
탐	-15741
툴	-15742
휘	-15743
곱	-15744
광	-15745
궈	-15746
낚	-15747
눅	-15748
늠	-15749
닝	-15750
닿	-15751
돋	-15752
둠	-15753
둥	-15754
뒹	-15755
똥	-15756
롤	-15757
릎	-15758
묻	-15759
밑	-15760
밟	-15761
벅	-15762
범	-15763
쉴	-15764
슈	-15765
쌍	-15766
썹	-15767
쑥	-15768
옳	-15769
욱	-15770
젯	-15771
찜	-15772
찢	-15773
첨	-15774
퀴	-15775
톱	-15776
툼	-15777
틋	-15778
팩	-15779
팸	-15780
퓨	-15781
헥	-15782
흑	-15783
겟	-15784
긁	-15785
꾼	-15786
댈	-15787
렛	-15788
렜	-15789
률	-15790
릅	-15791
묵	-15792
볍	-15793
빚	-15794
쁨	-15795
삐	-15796
싹	-15797
쌈	-15798
쎄	-15799
쏟	-15800
쏠	-15801
씌	-15802
엮	-15803
왠	-15804
윗	-15805
쫄	-15806
쫌	-15807
찐	-15808
촉	-15809
츠	-15810
켰	-15811
쿨	-15812
탓	-15813
틈	-15814
팀	-15815
팠	-15816
폼	-15817
헌	-15818
홀	-15819
힐	-15820
B	-15821
C	-15822
a	-15823
갠	-15824
겪	-15825
굳	-15826
껄	-15827
꼰	-15828
꽉	-15829
넷	-15830
놨	-15831
댓	-15832
덥	-15833
딘	-15834
딛	-15835
떼	-15836
뚫	-15837
램	-15838
릇	-15839
맴	-15840
맷	-15841
맺	-15842
멘	-15843
몫	-15844
밉	-15845
빙	-15846
빴	-15847
샌	-15848
앨	-15849
엠	-15850
욜	-15851
웹	-15852
율	-15853
좌	-15854
줌	-15855
쥐	-15856
짚	-15857
짰	-15858
쭉	-15859
쭤	-15860
총	-15861
촬	-15862
컥	-15863
컷	-15864
컸	-15865
텁	-15866
텔	-15867
팁	-15868
팬	-15869
펑	-15870
풋	-15871
핫	-15872
훔	-15873
흠	-15874
갱	-15875
겉	-15876
겐	-15877
깰	-15878
꽝	-15879
꿰	-15880
넋	-15881
뇌	-15882
눌	-15883
눕	-15884
닷	-15885
댄	-15886
돕	-15887
됬	-15888
딜	-15889
땜	-15890
떴	-15891
뜬	-15892
띠	-15893
랖	-15894
랙	-15895
렐	-15896
렴	-15897
륵	-15898
몬	-15899
묘	-15900
샜	-15901
숫	-15902
썩	-15903
앱	-15904
얽	-15905
엊	-15906
엿	-15907
옵	-15908
왓	-15909
젤	-15910
졋	-15911
짼	-15912
측	-15913
캬	-15914
쿠	-15915
쿵	-15916
킬	-15917
턱	-15918
텀	-15919
텅	-15920
툭	-15921
헐	-15922
헹	-15923
홈	-15924
홧	-15925
D	-15926
O	-15927
P	-15928
X	-15929
c	-15930
g	-15931
o	-15932
걍	-15933
겜	-15934
괘	-15935
균	-15936
귤	-15937
깃	-15938
깅	-15939
깬	-15940
깼	-15941
꼴	-15942
꽂	-15943
꿩	-15944
넛	-15945
넥	-15946
넹	-15947
녔	-15948
논	-15949
뇨	-15950
눴	-15951
닦	-15952
닭	-15953
댔	-15954
덩	-15955
덮	-15956
뚱	-15957
띰	-15958
띵	-15959
랭	-15960
렉	-15961
룰	-15962
룸	-15963
룽	-15964
륜	-15965
릭	-15966
맹	-15967
뮤	-15968
밭	-15969
벨	-15970
볕	-15971
붓	-15972
뷔	-15973
빽	-15974
뺏	-15975
뻤	-15976
뽕	-15977
뿅	-15978
삔	-15979
샐	-15980
샘	-15981
섞	-15982
섣	-15983
섯	-15984
섰	-15985
섹	-15986
솜	-15987
쇠	-15988
숏	-15989
